<unk>	0
<s>	0
</s>	0
:“	-0
。”	-1
宝玉	-2
笑道	-3
?”	-4
太太	-5
什么	-6
凤姐	-7
了一	-8
贾母	-9
也不	-10
夫人	-11
黛玉	-12
一个	-13
!”	-14
我们	-15
姑娘	-16
袭人	-17
去了	-18
宝钗	-19
王夫人	-20
起来	-21
出来	-22
听了	-23
你们	-24
怎么	-25
如今	-26
丫头	-27
说道	-28
知道	-29
老太太	-30
贾政	-31
奶奶	-32
这里	-33
说着	-34
众人	-35
那里	-36
来了	-37
自己	-38
不是	-39
一面	-40
不得	-41
只见	-42
两个	-43
贾琏	-44
没有	-45
不知	-46
平儿	-47
家的	-48
听见	-49
这个	-50
这样	-51
进来	-52
老爷	-53
东西	-54
咱们	-55
就是	-56
告诉	-57
的人	-58
姐姐	-59
只是	-60
只得	-61
大家	-62
姨妈	-63
回来	-64
这些	-65
二爷	-66
不好	-67
他们	-68
不过	-69
见了	-70
宝玉道	-71
所以	-72
出去	-73
凤姐儿	-74
也是	-75
一时	-76
薛姨妈	-77
这么	-78
探春	-79
紫鹃	-80
过来	-81
的事	-82
的话	-83
如此	-84
心里	-85
说了	-86
湘云	-87
妹妹	-88
她们	-89
婆子	-90
罢了	-91
不敢	-92
贾珍	-93
鸳鸯	-94
我的	-95
都是	-96
不能	-97
李纨	-98
今日	-99
几个	-100
二人	-101
还有	-102
银子	-103
答应	-104
说话	-105
只管	-106
尤氏	-107
会子	-108
这一	-109
也有	-110
那边	-111
晴雯	-112
媳妇	-113
这话	-114
哪里	-115
这是	-116
自然	-117
外头	-118
打发	-119
今儿	-120
是个	-121
姥姥	-122
在这里	-123
屋里	-124
来的	-125
人家	-126
如何	-127
问道	-128
那些	-129
听说	-130
邢夫人	-131
小丫头	-132
说的	-133
好了	-134
刘姥姥	-135
薛蟠	-136
姊妹	-137
香菱	-138
到了	-139
..	-140
原来	-141
吃了	-142
家里	-143
我也	-144
去罢	-145
人来	-146
孩子	-147
有一	-148
死了	-149
这会子	-150
不成	-151
在那里	-152
进去	-153
到底	-154
好的	-155
明白	-156
宝玉笑道	-157
上来	-158
明儿	-159
方才	-160
了一个	-161
心中	-162
看见	-163
连忙	-164
不在	-165
姨娘	-166
贾蓉	-167
麝月	-168
里头	-169
叫人	-170
不用	-171
不知道	-172
别人	-173
又是	-174
丫鬟	-175
哥哥	-176
二奶奶	-177
还是	-178
小厮	-179
身上	-180
回去	-181
起身	-182
你的	-183
意思	-184
于是	-185
周瑞	-186
’,	-187
果然	-188
说是	-189
已经	-190
怎么样	-191
不如	-192
带了	-193
瞧瞧	-194
主意	-195
女儿	-196
房中	-197
林黛玉	-198
跟前	-199
只有	-200
了一回	-201
又说	-202
越发	-203
:”	-204
便说	-205
完了	-206
我说	-207
谁知	-208
有了	-209
:‘	-210
得了	-211
有人	-212
句话	-213
惜春	-214
贾赦	-215
有什么	-216
一日	-217
过去	-218
一声	-219
只怕	-220
贾芸	-221
喜欢	-222
好些	-223
那个	-224
就是了	-225
儿的	-226
我就	-227
倒是	-228
吩咐	-229
此时	-230
雨村	-231
宝玉听了	-232
不住	-233
了几	-234
的是	-235
难道	-236
况且	-237
又不	-238
叫我	-239
袭人道	-240
兄弟	-241
嫂子	-242
悄悄	-243
有些	-244
看着	-245
母亲	-246
贾母道	-247
叫他	-248
便是	-249
素日	-250
因此	-251
点头	-252
一处	-253
还不	-254
众人都	-255
贾政道	-256
一件	-257
了两	-258
不必	-259
也没	-260
想着	-261
房里	-262
只说	-263
周瑞家的	-264
。“	-265
才好	-266
原是	-267
放心	-268
还要	-269
凤姐道	-270
一样	-271
了她	-272
走了	-273
不见	-274
不觉	-275
半日	-276
芳官	-277
若是	-278
不要	-279
也就	-280
大爷	-281
不肯	-282
只听	-283
看了	-284
看时	-285
为什么	-286
明日	-287
的了	-288
走来	-289
又有	-290
且说	-291
拿了	-292
▁宝玉	-293
二姐	-294
家人	-295
时候	-296
见他	-297
命人	-298
妙玉	-299
贾环	-300
言语	-301
说得	-302
金桂	-303
多少	-304
雪雁	-305
嬷嬷	-306
。’	-307
有个	-308
一般	-309
一个人	-310
下来	-311
许多	-312
一面说	-313
想起	-314
林之	-315
正是	-316
然后	-317
跟着	-318
二十	-319
忘了	-320
茗烟	-321
一回	-322
迎春	-323
林之孝	-324
以后	-325
岂不	-326
因问	-327
叫她	-328
奴才	-329
的东西	-330
黛玉道	-331
后来	-332
天天	-333
子里	-334
生气	-335
人的	-336
儿子	-337
着了	-338
服侍	-339
也都	-340
你就	-341
十分	-342
回家	-343
是谁	-344
见她	-345
过了	-346
王夫人道	-347
不可	-348
他的	-349
坐着	-350
胡涂	-351
拿着	-352
预备	-353
悄悄的	-354
”,	-355
三个	-356
坐下	-357
打听	-358
衣服	-359
别的	-360
去的	-361
请安	-362
作什么	-363
林姑娘	-364
府里	-365
收拾	-366
宝钗道	-367
赵姨娘	-368
不大	-369
了来	-370
莺儿	-371
这几	-372
知道了	-373
叫你	-374
日子	-375
有的	-376
可是	-377
大夫	-378
年纪	-379
父亲	-380
倘或	-381
才是	-382
姑娘们	-383
似的	-384
前儿	-385
回头	-386
在外	-387
宝琴	-388
不着	-389
哥儿	-390
子来	-391
昨儿	-392
你也	-393
你说	-394
可以	-395
各自	-396
园中	-397
忽见	-398
祖宗	-399
请了	-400
那一	-401
我也不	-402
答应了	-403
▁第	-404
话说	-405
笑着	-406
给他	-407
正说着	-408
次日	-409
虽然	-410
丫头们	-411
各处	-412
和尚	-413
必是	-414
了他	-415
了我	-416
地下	-417
我是	-418
不过是	-419
姐儿	-420
宝蟾	-421
一点	-422
她的	-423
开了	-424
给我	-425
要紧	-426
下回	-427
听得	-428
商议	-429
外面	-430
,“	-431
之事	-432
原故	-433
回道	-434
妈妈	-435
没了	-436
笑说	-437
你不	-438
将来	-439
坐在	-440
早已	-441
昨日	-442
两银子	-443
少不得	-444
四个	-445
带着	-446
正经	-447
里面	-448
门上	-449
一看	-450
光景	-451
知是	-452
▁那	-453
不许	-454
亲戚	-455
你又	-456
分解	-457
秦钟	-458
给你	-459
这般	-460
到这里	-461
姨太太	-462
便叫	-463
便问	-464
子的	-465
我不	-466
无人	-467
这两	-468
冷笑道	-469
贾琏道	-470
贾母笑道	-471
出了	-472
吃饭	-473
地方	-474
▁且说	-475
却是	-476
说毕	-477
老婆子	-478
便道	-479
园里	-480
坐了	-481
我才	-482
了出来	-483
下回分解	-484
一句	-485
见过	-486
这边	-487
也不敢	-488
回说	-489
忙道	-490
上头	-491
了个	-492
又道	-493
想来	-494
愿意	-495
父母	-496
便说道	-497
见宝玉	-498
了些	-499
人去	-500
笑了	-501
薛蝌	-502
走到	-503
”。	-504
不然	-505
人都	-506
在家	-507
我看	-508
赶着	-509
不曾	-510
和你	-511
▁这里	-512
林妹妹	-513
前日	-514
十二	-515
因又	-516
底下	-517
我想	-518
说我	-519
住了	-520
容易	-521
接了	-522
闲话	-523
高兴	-524
答应着	-525
上了	-526
便将	-527
岫烟	-528
忽然	-529
我还	-530
不来	-531
心下	-532
....	-533
宝钗笑道	-534
上的	-535
不想	-536
只要	-537
回了	-538
好生	-539
怡红	-540
贾兰	-541
宝二爷	-542
小丫头子	-543
下了	-544
又见	-545
手里	-546
等着	-547
做什么	-548
大奶奶	-549
二则	-550
那时	-551
可不是	-552
如此说	-553
可知	-554
定了	-555
实在	-556
小姐	-557
小的	-558
着一	-559
秋纹	-560
宝玉的	-561
尤二姐	-562
伺候	-563
你还	-564
使得	-565
一齐	-566
不理	-567
不管	-568
件事	-569
先生	-570
可巧	-571
来至	-572
正在	-573
正要	-574
笑话	-575
身子	-576
也罢了	-577
黛玉笑道	-578
伤心	-579
工夫	-580
湘莲	-581
▁话说	-582
出去了	-583
上面	-584
等我	-585
送了	-586
那人	-587
你老	-588
便命	-589
又要	-590
只好	-591
我倒	-592
细细	-593
给她	-594
衣裳	-595
认得	-596
一天	-597
一年	-598
不去	-599
你是	-600
又问	-601
吃酒	-602
怎样	-603
两个人	-604
因说道	-605
怡红院	-606
老太太的	-607
不出	-608
主子	-609
五儿	-610
叔叔	-611
大了	-612
女人	-613
好歹	-614
家去	-615
我来	-616
料理	-617
每日	-618
道士	-619
也没有	-620
上去	-621
也要	-622
大事	-623
家中	-624
拉着	-625
提起	-626
现在	-627
竟是	-628
这事	-629
递与	-630
老祖宗	-631
不但	-632
不免	-633
潇湘	-634
生日	-635
了一声	-636
史湘云	-637
不依	-638
又命	-639
可怜	-640
司棋	-641
叹道	-642
横竖	-643
起来了	-644
凤姐笑道	-645
林之孝家的	-646
一一	-647
了去	-648
放在	-649
钏儿	-650
了半	-651
和我	-652
太爷	-653
脸上	-654
茶来	-655
赖大	-656
只当	-657
读书	-658
也不用	-659
一概	-660
了你	-661
亲自	-662
出门	-663
热闹	-664
的好	-665
了一遍	-666
姊妹们	-667
宝姐姐	-668
士隐	-669
慢慢	-670
旁边	-671
男人	-672
留下	-673
红了	-674
道是	-675
平儿道	-676
站起来	-677
一人	-678
不提	-679
今年	-680
你别	-681
你要	-682
侄儿	-683
晚上	-684
有事	-685
真是	-686
着急	-687
红玉	-688
虽是	-689
众人道	-690
告诉你	-691
是什么	-692
听了这话	-693
了这	-694
太监	-695
我要	-696
的心	-697
秦氏	-698
记得	-699
问他	-700
与他	-701
干净	-702
炕上	-703
贾瑞	-704
在外头	-705
接着	-706
旺儿	-707
觉得	-708
问你	-709
问她	-710
想了一	-711
贾母等	-712
下泪	-713
和他	-714
头里	-715
床上	-716
我又	-717
门前	-718
出来了	-719
听见了	-720
好好的	-721
的时候	-722
自己的	-723
不多	-724
从此	-725
何必	-726
女孩	-727
索性	-728
荣府	-729
说起	-730
贾蔷	-731
那日	-732
里间	-733
袭人等	-734
一早	-735
事来	-736
吃茶	-737
房内	-738
打量	-739
散了	-740
无奈	-741
时常	-742
规矩	-743
闻得	-744
哭起来	-745
女孩子	-746
王夫人等	-747
不到	-748
之物	-749
便要	-750
急得	-751
样儿	-752
的一	-753
眼睛	-754
第二	-755
自在	-756
道理	-757
不在家	-758
到底是	-759
潇湘馆	-760
袭人笑道	-761
――	-762
上下	-763
不了	-764
因见	-765
大人	-766
想道	-767
暂且	-768
未了	-769
未免	-770
渐渐	-771
大老爷	-772
太太们	-773
女孩儿	-774
小厮们	-775
,‘	-776
一径	-777
丢了	-778
中用	-779
刚才	-780
名字	-781
当日	-782
法儿	-783
站着	-784
话下	-785
遇见	-786
▁一时	-787
一句话	-788
下泪来	-789
在一处	-790
李纨道	-791
这么着	-792
也无	-793
和她	-794
天下	-795
子上	-796
并不	-797
心内	-798
忙问	-799
成了	-800
死的	-801
紫英	-802
若说	-803
这日	-804
因笑道	-805
慢慢的	-806
的丫头	-807
一百	-808
三人	-809
你只	-810
嘱咐	-811
头儿	-812
拿来	-813
没人	-814
都说	-815
就完了	-816
忙笑道	-817
’。	-818
》,	-819
之后	-820
也好	-821
仔细	-822
但是	-823
何苦	-824
就不	-825
得罪	-826
恐怕	-827
我只	-828
若不	-829
跪下	-830
凤丫头	-831
宝姑娘	-832
那一个	-833
不在话下	-834
众人听了	-835
之人	-836
也该	-837
事情	-838
却说	-839
回到	-840
当下	-841
放下	-842
虽不	-843
近日	-844
都不	-845
门口	-846
▁凤姐	-847
告诉了	-848
宝玉便	-849
打发人	-850
说什么	-851
想了一想	-852
你这	-853
兴儿	-854
吃的	-855
因为	-856
因说	-857
国府	-858
地里	-859
姑子	-860
委屈	-861
就要	-862
我一	-863
欢喜	-864
看看	-865
睡了	-866
穿著	-867
错了	-868
不出来	-869
在家里	-870
探春道	-871
有一个	-872
一定	-873
个人	-874
之意	-875
你去	-876
再说	-877
可惜	-878
后面	-879
商量	-880
婶子	-881
必定	-882
抱怨	-883
收了	-884
是我	-885
照应	-886
病了	-887
的小	-888
着他	-889
说笑	-890
▁却说	-891
这些人	-892
一夜	-893
一见	-894
一语	-895
上夜	-896
不及	-897
之处	-898
也未	-899
便不	-900
便知	-901
又叫	-902
尚未	-903
屋子	-904
想到	-905
我去	-906
眼泪	-907
着呢	-908
说完	-909
了一口	-910
冯紫英	-911
回来了	-912
自然是	-913
一则	-914
事的	-915
仍旧	-916
你来	-917
打点	-918
放了	-919
替你	-920
琥珀	-921
相干	-922
就好了	-923
巧姐儿	-924
我们的	-925
不尽	-926
别说	-927
去呢	-928
大观	-929
年轻	-930
彩云	-931
我呢	-932
是你	-933
晚间	-934
晚饭	-935
有趣	-936
究竟	-937
贾府	-938
还说	-939
都在	-940
难为	-941
那丫头	-942
凤姐儿道	-943
宝玉听说	-944
下去	-945
不便	-946
你倒	-947
便向	-948
公子	-949
包勇	-950
富贵	-951
小儿	-952
岂知	-953
我这	-954
是不	-955
梳洗	-956
进了	-957
▁黛玉	-958
大太太	-959
好容易	-960
宝兄弟	-961
湘云道	-962
不上	-963
不像	-964
低头	-965
又向	-966
四十	-967
回明	-968
园子	-969
头上	-970
妥当	-971
小子	-972
早起	-973
果子	-974
花儿	-975
跟了	-976
进入	-977
风流	-978
笑起来	-979
凤姐儿笑道	-980
一把	-981
三日	-982
下人	-983
不信	-984
又将	-985
口里	-986
嘻嘻	-987
大的	-988
忙忙	-989
歇息	-990
气的	-991
真真	-992
还没	-993
造化	-994
也不能	-995
又不好	-996
听下回分解	-997
一口	-998
一块	-999
之时	-1000
俗语	-1001
北静	-1002
各色	-1003
或者	-1004
把这	-1005
皆是	-1006
磕头	-1007
陪着	-1008
鲍二	-1009
紫鹃道	-1010
红了脸	-1011
请了安	-1012
这些话	-1013
一阵	-1014
三姐	-1015
了好	-1016
二百	-1017
五十	-1018
倒像	-1019
口内	-1020
坏了	-1021
娘儿	-1022
宁府	-1023
就有	-1024
就走	-1025
念书	-1026
我再	-1027
本来	-1028
爷们	-1029
看他	-1030
而已	-1031
自去	-1032
了不得	-1033
听见说	-1034
宝玉忙	-1035
知道的	-1036
平儿笑道	-1037
且听下回分解	-1038
一场	-1039
一应	-1040
不说	-1041
了人	-1042
伸手	-1043
你可	-1044
几年	-1045
唬得	-1046
回身	-1047
园内	-1048
故意	-1049
文章	-1050
来回	-1051
王爷	-1052
衙门	-1053
那样	-1054
▁贾政	-1055
不好了	-1056
丫鬟们	-1057
好姐姐	-1058
怎么说	-1059
老嬷嬷	-1060
▁正说着	-1061
探春笑道	-1062
薛姨妈道	-1063
’‘	-1064
两边	-1065
他说	-1066
代儒	-1067
体面	-1068
别处	-1069
叫了	-1070
惟有	-1071
或是	-1072
来说	-1073
此事	-1074
气得	-1075
生得	-1076
站在	-1077
见是	-1078
轻轻	-1079
那么	-1080
陪笑	-1081
骂道	-1082
什么事	-1083
原来是	-1084
我知道	-1085
明白了	-1086
不禁	-1087
两日	-1088
之间	-1089
二字	-1090
仍是	-1091
仗着	-1092
作了	-1093
便把	-1094
倒也	-1095
利害	-1096
勉强	-1097
又怕	-1098
受用	-1099
只因	-1100
听听	-1101
嗳哟	-1102
嘴里	-1103
回房	-1104
大红	-1105
娘娘	-1106
并无	-1107
打了	-1108
早晚	-1109
有几	-1110
过的	-1111
醒了	-1112
里的	-1113
须得	-1114
▁原来	-1115
▁贾母	-1116
了一会	-1117
进来了	-1118
那婆子	-1119
凤姐听了	-1120
不同	-1121
不起	-1122
了头	-1123
又恐	-1124
听着	-1125
四人	-1126
太医	-1127
往前	-1128
既是	-1129
空儿	-1130
见的	-1131
诧异	-1132
赌气	-1133
逛逛	-1134
不知是	-1135
也不好	-1136
了半日	-1137
到那里	-1138
园子里	-1139
这一个	-1140
这么说	-1141
一张	-1142
一辈	-1143
三十	-1144
也算	-1145
亲友	-1146
从前	-1147
做了	-1148
元妃	-1149
劝道	-1150
古人	-1151
多了	-1152
巧姐	-1153
应了	-1154
心了	-1155
把我	-1156
指着	-1157
无事	-1158
是了	-1159
替我	-1160
王二	-1161
端的	-1162
翠缕	-1163
老娘	-1164
胡说	-1165
舅舅	-1166
了一跳	-1167
些什么	-1168
你怎么	-1169
便笑道	-1170
北静王	-1171
又不敢	-1172
姑奶奶	-1173
这件事	-1174
鸳鸯道	-1175
......	-1176
一杯	-1177
一笑	-1178
丰儿	-1179
也罢	-1180
了手	-1181
只顾	-1182
哭道	-1183
够了	-1184
已是	-1185
师父	-1186
带领	-1187
把那	-1188
更加	-1189
的说	-1190
而去	-1191
使不得	-1192
告诉我	-1193
刘姥姥道	-1194
湘云笑道	-1195
一顿	-1196
你快	-1197
便往	-1198
再来	-1199
反倒	-1200
妹子	-1201
婶娘	-1202
忽听	-1203
急了	-1204
怪道	-1205
拿出	-1206
无话	-1207
歇歇	-1208
海棠	-1209
睡觉	-1210
答言	-1211
老婆	-1212
问我	-1213
一面又	-1214
了好些	-1215
我这里	-1216
比不得	-1217
背地里	-1218
贾珍道	-1219
你老人家	-1220
王二夫人	-1221
书房	-1222
作诗	-1223
你先	-1224
几句	-1225
动了	-1226
又来	-1227
她去	-1228
她是	-1229
帮着	-1230
彼此	-1231
得住	-1232
急忙	-1233
换了	-1234
来瞧	-1235
样子	-1236
没的	-1237
的那	-1238
认真	-1239
这也	-1240
送到	-1241
也不知	-1242
出来的	-1243
并不是	-1244
见贾母	-1245
这么大	-1246
打发人来	-1247
一想	-1248
一行	-1249
为人	-1250
何不	-1251
你且	-1252
儿呢	-1253
写了	-1254
大小	-1255
我原	-1256
我有	-1257
房子	-1258
放着	-1259
说他	-1260
还了	-1261
送去	-1262
送来	-1263
道婆	-1264
吃了饭	-1265
在地下	-1266
姑娘的	-1267
小孩子	-1268
一会	-1269
一瞧	-1270
不该	-1271
但只	-1272
使唤	-1273
再者	-1274
写着	-1275
取笑	-1276
各人	-1277
告辞	-1278
四五	-1279
在旁	-1280
得很	-1281
微微	-1282
我和	-1283
或有	-1284
所有	-1285
扇子	-1286
手帕	-1287
抬头	-1288
李贵	-1289
来请	-1290
桌上	-1291
每人	-1292
自有	-1293
话来	-1294
走至	-1295
门外	-1296
闹的	-1297
一会子	-1298
不自在	-1299
从小儿	-1300
便问道	-1301
宝钗等	-1302
巴不得	-1303
不怕	-1304
与她	-1305
何曾	-1306
即刻	-1307
夫妻	-1308
就在	-1309
弥陀	-1310
心上	-1311
心的	-1312
我了	-1313
拉了	-1314
拉住	-1315
拍手	-1316
添了	-1317
生的	-1318
立刻	-1319
行事	-1320
让坐	-1321
跑了	-1322
蹄子	-1323
近来	-1324
进京	-1325
道人	-1326
你只管	-1327
又笑道	-1328
咱们家	-1329
在床上	-1330
弥陀佛	-1331
既这样	-1332
柳家的	-1333
渐渐的	-1334
说着便	-1335
过去了	-1336
一语未了	-1337
阿弥陀佛	-1338
一番	-1339
上房	-1340
下的	-1341
与我	-1342
人了	-1343
从来	-1344
以为	-1345
住着	-1346
何处	-1347
余者	-1348
偶然	-1349
同着	-1350
在内	-1351
天气	-1352
好处	-1353
孙子	-1354
安慰	-1355
小红	-1356
岂有	-1357
弟兄	-1358
张华	-1359
打开	-1360
拿去	-1361
无可	-1362
照看	-1363
留着	-1364
窗外	-1365
等事	-1366
老子	-1367
自是	-1368
虽有	-1369
要知	-1370
要走	-1371
针线	-1372
▁说着	-1373
与宝玉	-1374
晴雯道	-1375
玉钏儿	-1376
说话儿	-1377
这几年	-1378
那里去	-1379
金钏儿	-1380
麝月道	-1381
贾母听了	-1382
?“	-1383
一两	-1384
一首	-1385
之心	-1386
也难	-1387
事了	-1388
亲家	-1389
人等	-1390
偏生	-1391
十五	-1392
半天	-1393
哭着	-1394
姑妈	-1395
帘子	-1396
幸而	-1397
必要	-1398
忙着	-1399
忙说	-1400
操心	-1401
照管	-1402
说她	-1403
还好	-1404
银钱	-1405
三姑娘	-1406
怎么不	-1407
怨不得	-1408
众人都道	-1409
怎么样呢	-1410
这会子又	-1411
▁正	-1412
一头	-1413
一心	-1414
一路	-1415
不防	-1416
两句	-1417
了的	-1418
人多	-1419
倪二	-1420
十个	-1421
去后	-1422
受了	-1423
只在	-1424
名儿	-1425
四字	-1426
外人	-1427
待要	-1428
想是	-1429
我可	-1430
新鲜	-1431
族中	-1432
日后	-1433
有何	-1434
未必	-1435
要去	-1436
让我	-1437
金陵	-1438
他两个	-1439
嘻嘻的	-1440
我如今	-1441
的一声	-1442
笑问道	-1443
细细的	-1444
黛玉的	-1445
不好意思	-1446
一同	-1447
一并	-1448
也便	-1449
交给	-1450
会意	-1451
使人	-1452
几天	-1453
十来	-1454
名唤	-1455
喜得	-1456
回至	-1457
大约	-1458
大舅	-1459
女子	-1460
孝敬	-1461
守着	-1462
幸亏	-1463
很好	-1464
得好	-1465
我竟	-1466
未知	-1467
板儿	-1468
淘气	-1469
点子	-1470
玩笑	-1471
疑惑	-1472
的呢	-1473
神仙	-1474
菩萨	-1475
贾妃	-1476
赶忙	-1477
辛苦	-1478
这可	-1479
远远	-1480
除了	-1481
也不过	-1482
二哥哥	-1483
依我说	-1484
告诉她	-1485
大嫂子	-1486
尤三姐	-1487
尤氏道	-1488
拿出来	-1489
李嬷嬷	-1490
?’	-1491
一家	-1492
一说	-1493
不妨	-1494
不解	-1495
他便	-1496
伤感	-1497
何事	-1498
倒了	-1499
倒好	-1500
儿了	-1501
先前	-1502
南边	-1503
后悔	-1504
坠儿	-1505
处来	-1506
大哥	-1507
头一	-1508
她说	-1509
小心	-1510
屋内	-1511
并没	-1512
往日	-1513
恍惚	-1514
我在	-1515
有理	-1516
母女	-1517
法子	-1518
王仁	-1519
环儿	-1520
等人	-1521
精神	-1522
而且	-1523
聪明	-1524
至于	-1525
若有	-1526
虽说	-1527
记挂	-1528
误了	-1529
诸事	-1530
转身	-1531
还得	-1532
退出	-1533
门子	-1534
颜色	-1535
’。”	-1536
▁众人	-1537
一点儿	-1538
为的是	-1539
也不必	-1540
你们的	-1541
出一个	-1542
叫他们	-1543
叫她们	-1544
大观园	-1545
宝玉又	-1546
并没有	-1547
轻轻的	-1548
这不是	-1549
那些人	-1550
那和尚	-1551
陪笑道	-1552
也不知道	-1553
▁至	-1554
一大	-1555
三四	-1556
上学	-1557
不错	-1558
乃是	-1559
你既	-1560
便又	-1561
便走	-1562
厅上	-1563
后头	-1564
咳嗽	-1565
哭得	-1566
喝酒	-1567
她就	-1568
婆婆	-1569
我先	-1570
我虽	-1571
昨夜	-1572
本是	-1573
来往	-1574
梅花	-1575
独有	-1576
省得	-1577
眼色	-1578
秋桐	-1579
站住	-1580
联道	-1581
藕官	-1582
赶来	-1583
金荣	-1584
▁贾琏	-1585
了一夜	-1586
人家的	-1587
又不是	-1588
宝玉见	-1589
忙忙的	-1590
惜春道	-1591
我听见	-1592
有几个	-1593
过来了	-1594
这也是	-1595
说到这里	-1596
贾政听了	-1597
这是什么	-1598
......”	-1599
二叔	-1600
人说	-1601
他去	-1602
你看	-1603
倒要	-1604
几日	-1605
去找	-1606
吃过	-1607
多心	-1608
头的	-1609
定要	-1610
就只	-1611
开门	-1612
当着	-1613
忙命	-1614
扶着	-1615
明年	-1616
春燕	-1617
有话	-1618
朋友	-1619
来呢	-1620
没法	-1621
满面	-1622
留心	-1623
病着	-1624
着实	-1625
而来	-1626
能够	-1627
自为	-1628
蘅芜	-1629
行礼	-1630
见人	-1631
警幻	-1632
话儿	-1633
贾芹	-1634
这种	-1635
院内	-1636
宝玉也	-1637
怎么了	-1638
怎么就	-1639
我心里	-1640
点头儿	-1641
琏二爷	-1642
笑说道	-1643
这么个	-1644
也未可知	-1645
只见一个	-1646
一边	-1647
上一	-1648
不会	-1649
之中	-1650
之声	-1651
也得	-1652
也说	-1653
你了	-1654
做的	-1655
出一	-1656
前来	-1657
十六	-1658
取了	-1659
吓得	-1660
哭了	-1661
善保	-1662
在此	-1663
夜里	-1664
很是	-1665
我便	-1666
房门	-1667
执事	-1668
把你	-1669
无法	-1670
早些	-1671
是他	-1672
没个	-1673
没趣	-1674
爷爷	-1675
生事	-1676
看来	-1677
睡下	-1678
等语	-1679
给了	-1680
要打	-1681
这位	-1682
那年	-1683
都要	-1684
问了	-1685
院中	-1686
题目	-1687
饮食	-1688
▁次日	-1689
不中用	-1690
也不是	-1691
回去了	-1692
奶奶的	-1693
王善保	-1694
的事情	-1695
荣国府	-1696
这样的	-1697
都笑道	-1698
这些东西	-1699
一味	-1700
不安	-1701
两口	-1702
二年	-1703
五更	-1704
令人	-1705
作主	-1706
你我	-1707
便在	-1708
便宜	-1709
却也	-1710
呆呆	-1711
头来	-1712
奇怪	-1713
安歇	-1714
小事	-1715
就来	-1716
山石	-1717
彼时	-1718
念道	-1719
我没	-1720
替她	-1721
月钱	-1722
登时	-1723
的来	-1724
眼里	-1725
睡去	-1726
瞅着	-1727
等物	-1728
纳闷	-1729
背后	-1730
自从	-1731
见我	-1732
角门	-1733
说明	-1734
辜负	-1735
辞了	-1736
问问	-1737
非常	-1738
▁一日	-1739
一一的	-1740
了半天	-1741
几个人	-1742
婆子们	-1743
宝玉因	-1744
我的心	-1745
所有的	-1746
模样儿	-1747
没意思	-1748
的母亲	-1749
看见了	-1750
还了得	-1751
这两个	-1752
这屋里	-1753
了一会子	-1754
唬了一跳	-1755
。‘	-1756
一步	-1757
不似	-1758
之家	-1759
也曾	-1760
了么	-1761
他就	-1762
何况	-1763
何等	-1764
作的	-1765
你呢	-1766
你若	-1767
你那	-1768
偏又	-1769
再不	-1770
几时	-1771
几次	-1772
办事	-1773
口气	-1774
只剩	-1775
回过	-1776
因向	-1777
因而	-1778
女婿	-1779
就好	-1780
得的	-1781
早有	-1782
暗暗	-1783
替他	-1784
正自	-1785
没脸	-1786
烦恼	-1787
犯了	-1788
用手	-1789
百般	-1790
的手	-1791
瞧了	-1792
答道	-1793
美人	-1794
进园	-1795
进城	-1796
都有	-1797
问好	-1798
闹出	-1799
随便	-1800
饭后	-1801
。’”	-1802
一样的	-1803
与贾母	-1804
了一场	-1805
你是个	-1806
你瞧瞧	-1807
便起身	-1808
在屋里	-1809
好不好	-1810
怕什么	-1811
我们家	-1812
睡着了	-1813
还没有	-1814
这两日	-1815
这几日	-1816
只见宝玉	-1817
在老太太	-1818
琏二奶奶	-1819
要知端的	-1820
还有什么	-1821
黛玉听了	-1822
王夫人听了	-1823
一事	-1824
一手	-1825
一月	-1826
一条	-1827
三更	-1828
不语	-1829
与你	-1830
他又	-1831
体统	-1832
便忙	-1833
其中	-1834
又看	-1835
叫作	-1836
块玉	-1837
复又	-1838
大娘	-1839
好事	-1840
张罗	-1841
往外	-1842
快快	-1843
恰好	-1844
我到	-1845
手内	-1846
打算	-1847
无所	-1848
日夜	-1849
是要	-1850
来到	-1851
来问	-1852
桂花	-1853
清楚	-1854
现成	-1855
看去	-1856
着眼	-1857
睡着	-1858
知县	-1859
荷包	-1860
讲究	-1861
说出	-1862
送至	-1863
那是	-1864
不愿意	-1865
不知何	-1866
不言语	-1867
便命人	-1868
呆呆的	-1869
多早晚	-1870
奶奶们	-1871
好妹妹	-1872
媳妇们	-1873
有这样	-1874
珍大爷	-1875
见凤姐	-1876
那宝玉	-1877
大哭起来	-1878
李纨笑道	-1879
王善保家的	-1880
一位	-1881
一层	-1882
一带	-1883
一直	-1884
不下	-1885
不绝	-1886
也来	-1887
二位	-1888
五百	-1889
他是	-1890
你再	-1891
你瞧	-1892
信儿	-1893
倒不	-1894
八九	-1895
后门	-1896
央告	-1897
头发	-1898
左右	-1899
庙里	-1900
惊动	-1901
意欲	-1902
我且	-1903
才刚	-1904
拦住	-1905
故事	-1906
方欲	-1907
来找	-1908
玉菡	-1909
男女	-1910
留神	-1911
的钱	-1912
着她	-1913
等都	-1914
脸面	-1915
见你	-1916
说来	-1917
这等	-1918
金银	-1919
闷的	-1920
一声儿	-1921
不放心	-1922
两三个	-1923
也笑道	-1924
了多少	-1925
了宝玉	-1926
只听见	-1927
和宝玉	-1928
四姑娘	-1929
在哪里	-1930
在里头	-1931
外头的	-1932
大家都	-1933
宝丫头	-1934
我自己	-1935
甄宝玉	-1936
老爷的	-1937
蒋玉菡	-1938
这边来	-1939
进来说	-1940
忽然想起	-1941
我们奶奶	-1942
贾琏笑道	-1943
那里去了	-1944
那里知道	-1945
一半	-1946
一片	-1947
下面	-1948
不听	-1949
不料	-1950
不足	-1951
之外	-1952
也还	-1953
伶俐	-1954
侍书	-1955
儿女	-1956
兴头	-1957
再去	-1958
劝解	-1959
又听	-1960
又气	-1961
取乐	-1962
只求	-1963
国公	-1964
大哭	-1965
大门	-1966
天地	-1967
子弟	-1968
就该	-1969
就说	-1970
尽了	-1971
形容	-1972
才要	-1973
打扮	-1974
拿起	-1975
捧着	-1976
旨意	-1977
更觉	-1978
李十	-1979
桃花	-1980
榻上	-1981
相见	-1982
看得	-1983
看戏	-1984
着些	-1985
着手	-1986
管家	-1987
见问	-1988
议论	-1989
调唆	-1990
贾家	-1991
转过	-1992
这病	-1993
进内	-1994
迟了	-1995
钱的	-1996
个什么	-1997
他二人	-1998
众姊妹	-1999
又不知	-2000
又说道	-2001
吃了一	-2002
在外间	-2003
娘儿们	-2004
孙女儿	-2005
想不到	-2006
点头道	-2007
由不得	-2008
的光景	-2009
的工夫	-2010
胡涂了	-2011
茗烟道	-2012
薛蟠道	-2013
说出来	-2014
听如此说	-2015
尤氏笑道	-2016
一干	-2017
三五	-2018
乱嚷	-2019
了罢	-2020
他来	-2021
便有	-2022
倒茶	-2023
前头	-2024
千万	-2025
即忙	-2026
古怪	-2027
后日	-2028
喝了	-2029
女尼	-2030
她也	-2031
姑爷	-2032
寂寞	-2033
帖儿	-2034
当铺	-2035
得意	-2036
忽又	-2037
手中	-2038
打着	-2039
智能	-2040
正值	-2041
沁芳	-2042
混说	-2043
熙凤	-2044
王子	-2045
玩话	-2046
玻璃	-2047
甄家	-2048
的安	-2049
笑向	-2050
终身	-2051
脾气	-2052
芙蓉	-2053
若论	-2054
见得	-2055
说些	-2056
诸人	-2057
贵妃	-2058
这件	-2059
连日	-2060
那僧	-2061
闹得	-2062
也不理	-2063
几个钱	-2064
哪一个	-2065
宁国府	-2066
忙上来	-2067
李十儿	-2068
的一个	-2069
这就是	-2070
那边去	-2071
没有什么	-2072
点点头儿	-2073
自己房中	-2074
七八	-2075
不忍	-2076
东边	-2077
两处	-2078
个好	-2079
主人	-2080
亲事	-2081
他家	-2082
以及	-2083
伙计	-2084
何尝	-2085
你想	-2086
儿来	-2087
儿罢	-2088
啐道	-2089
园门	-2090
夜间	-2091
她来	-2092
娶了	-2093
子兴	-2094
安静	-2095
家下	-2096
小人	-2097
开眼	-2098
彩屏	-2099
性情	-2100
恼了	-2101
意儿	-2102
我已	-2103
我正	-2104
手儿	-2105
打死	-2106
拿我	-2107
撒谎	-2108
无不	-2109
是她	-2110
有所	-2111
有时	-2112
李氏	-2113
李纹	-2114
果真	-2115
此刻	-2116
每每	-2117
汗巾	-2118
派了	-2119
深知	-2120
玩的	-2121
田地	-2122
病来	-2123
相公	-2124
眼前	-2125
着我	-2126
至此	-2127
薛家	-2128
输了	-2129
造次	-2130
那起	-2131
铁槛	-2132
:“‘	-2133
▁平儿	-2134
三个人	-2135
两个字	-2136
何苦来	-2137
你两个	-2138
叫我们	-2139
告诉他	-2140
她两个	-2141
婆子道	-2142
小蹄子	-2143
忙起身	-2144
手帕子	-2145
摸不着	-2146
的日子	-2147
着一个	-2148
老人家	-2149
遇见了	-2150
那人道	-2151
那孩子	-2152
▁凤姐儿	-2153
为什么不	-2154
》。	-2155
上前	-2156
不动	-2157
不比	-2158
为我	-2159
之情	-2160
之类	-2161
交与	-2162
今见	-2163
便和	-2164
六十	-2165
出气	-2166
原该	-2167
又没	-2168
叫道	-2169
可笑	-2170
吃药	-2171
后事	-2172
听她	-2173
吵嚷	-2174
坐坐	-2175
外间	-2176
大喜	-2177
天上	-2178
娶亲	-2179
家务	-2180
将那	-2181
小燕	-2182
平安	-2183
往后	-2184
往里	-2185
我吃	-2186
扎挣	-2187
打扫	-2188
把个	-2189
搁在	-2190
来看	-2191
来着	-2192
死去	-2193
水月	-2194
炕沿	-2195
点儿	-2196
珍珠	-2197
疑心	-2198
的病	-2199
皆有	-2200
看那	-2201
稻香	-2202
细想	-2203
胭脂	-2204
自幼	-2205
螃蟹	-2206
过于	-2207
这倒	-2208
醉了	-2209
里去	-2210
问起	-2211
闹了	-2212
院门	-2213
风声	-2214
▁当下	-2215
▁袭人	-2216
一辈子	-2217
二姐姐	-2218
二老爷	-2219
几句话	-2220
怎么又	-2221
拿了一	-2222
有这个	-2223
王子腾	-2224
禁不住	-2225
薛宝钗	-2226
贾珍等	-2227
这些事	-2228
这几天	-2229
那府里	-2230
都没有	-2231
都知道	-2232
铁槛寺	-2233
回老太太	-2234
宝玉只得	-2235
我们姑娘	-2236
我们这里	-2237
我告诉你	-2238
笑嘻嘻的	-2239
见了宝玉	-2240
这有什么	-2241
一下	-2242
不为	-2243
不堪	-2244
不止	-2245
且又	-2246
两只	-2247
也太	-2248
人物	-2249
他也	-2250
分明	-2251
却又	-2252
好个	-2253
官司	-2254
弄得	-2255
念佛	-2256
性儿	-2257
房屋	-2258
打起	-2259
拉扯	-2260
故此	-2261
教训	-2262
明知	-2263
更好	-2264
梦中	-2265
正月	-2266
混账	-2267
益发	-2268
石头	-2269
祖母	-2270
细说	-2271
罢咧	-2272
胡乱	-2273
要了	-2274
让他	-2275
说你	-2276
谁敢	-2277
走开	-2278
跑到	-2279
路上	-2280
进门	-2281
道的	-2282
▁谁知	-2283
不得了	-2284
了一句	-2285
了两个	-2286
你哥哥	-2287
你如今	-2288
你放心	-2289
凤姐姐	-2290
叫宝玉	-2291
咱们的	-2292
张道士	-2293
想起来	-2294
我来了	-2295
所以我	-2296
没听见	-2297
着宝玉	-2298
贾政等	-2299
贾芸道	-2300
冯紫英道	-2301
小丫头们	-2302
一二	-2303
一对	-2304
一等	-2305
一色	-2306
不定	-2307
之妻	-2308
乏了	-2309
人之	-2310
人口	-2311
人回	-2312
先时	-2313
其实	-2314
几乎	-2315
到家	-2316
又好	-2317
又想	-2318
及至	-2319
可不	-2320
吃毕	-2321
含泪	-2322
命他	-2323
在这	-2324
天的	-2325
如海	-2326
姐妹	-2327
安心	-2328
家常	-2329
对联	-2330
就把	-2331
并未	-2332
形景	-2333
彩霞	-2334
往下	-2335
得不	-2336
恩典	-2337
感激	-2338
成日	-2339
拌嘴	-2340
摇头	-2341
收着	-2342
散去	-2343
方子	-2344
日间	-2345
是何	-2346
最是	-2347
果见	-2348
标致	-2349
梨香	-2350
欺负	-2351
止住	-2352
死活	-2353
没见	-2354
现今	-2355
直到	-2356
省亲	-2357
着头	-2358
离了	-2359
私自	-2360
笑问	-2361
翠墨	-2362
自此	-2363
自觉	-2364
花了	-2365
被人	-2366
论理	-2367
身体	-2368
面前	-2369
齐全	-2370
▁宝钗	-2371
一面走	-2372
东府里	-2373
也只得	-2374
也是个	-2375
了起来	-2376
他父亲	-2377
你这样	-2378
在炕上	-2379
太太的	-2380
妙玉道	-2381
宝玉在	-2382
就罢了	-2383
往贾母	-2384
怎么好	-2385
怎么着	-2386
我那里	-2387
柳湘莲	-2388
王太医	-2389
的地方	-2390
给宝玉	-2391
舍不得	-2392
这句话	-2393
这都是	-2394
闷闷的	-2395
马道婆	-2396
不知道呢	-2397
两个婆子	-2398
也是有的	-2399
什么东西	-2400
众人笑道	-2401
就知道了	-2402
我们家的	-2403
既这么着	-2404
袭人姐姐	-2405
请老太太	-2406
邢夫人等	-2407
周瑞家的道	-2408
三分	-2409
三百	-2410
不清	-2411
两件	-2412
个个	-2413
之理	-2414
之言	-2415
也只	-2416
亦是	-2417
使用	-2418
便也	-2419
内中	-2420
再三	-2421
出入	-2422
分派	-2423
又添	-2424
只觉	-2425
可见	-2426
合家	-2427
呜咽	-2428
命的	-2429
哭的	-2430
四更	-2431
回避	-2432
垂手	-2433
外边	-2434
她又	-2435
孝顺	-2436
山坡	-2437
异常	-2438
张三	-2439
得起	-2440
心想	-2441
心来	-2442
怕他	-2443
怕她	-2444
急的	-2445
懂得	-2446
才来	-2447
按着	-2448
无故	-2449
早饭	-2450
栊翠	-2451
桌子	-2452
歇着	-2453
派人	-2454
琏儿	-2455
生恐	-2456
男子	-2457
病的	-2458
皆因	-2459
第一	-2460
箱子	-2461
老实	-2462
胆子	-2463
舅母	-2464
花的	-2465
蕊官	-2466
见识	-2467
解闷	-2468
谁家	-2469
走走	-2470
趁着	-2471
身边	-2472
这句	-2473
酒来	-2474
闲了	-2475
阴阳	-2476
隔着	-2477
雀儿	-2478
领了	-2479
默默	-2480
龄官	-2481
..“	-2482
▁于是	-2483
▁湘云	-2484
不是我	-2485
了一瞧	-2486
了这个	-2487
你到底	-2488
你知道	-2489
到贾母	-2490
又嘱咐	-2491
又有一	-2492
大哥哥	-2493
尤氏等	-2494
我今儿	-2495
我们这	-2496
我已经	-2497
水月庵	-2498
没要紧	-2499
的人了	-2500
老先生	-2501
袭人忙	-2502
说的是	-2503
还不快	-2504
这里来	-2505
邢岫烟	-2506
雪雁道	-2507
也不言语	-2508
只见宝钗	-2509
咱们家的	-2510
啐了一口	-2511
娘儿两个	-2512
怡红院中	-2513
打发人去	-2514
有什么事	-2515
说了一遍	-2516
▁一语未了	-2517
▁宝玉听了	-2518
!“	-2519
一宿	-2520
一席	-2521
一溜	-2522
三天	-2523
上等	-2524
上车	-2525
不够	-2526
不妥	-2527
不算	-2528
不言	-2529
丢下	-2530
两人	-2531
为何	-2532
买卖	-2533
买的	-2534
了呢	-2535
人命	-2536
俱已	-2537
其余	-2538
再要	-2539
去回	-2540
又把	-2541
发了	-2542
口中	-2543
叫来	-2544
含笑	-2545
听他	-2546
哭泣	-2547
城外	-2548
夫妇	-2549
失了	-2550
奇了	-2551
她便	-2552
好象	-2553
委曲	-2554
学里	-2555
对面	-2556
已毕	-2557
弄出	-2558
归坐	-2559
当作	-2560
心事	-2561
心疼	-2562
忙乱	-2563
怕人	-2564
想必	-2565
想毕	-2566
我替	-2567
才罢	-2568
找去	-2569
有意	-2570
极是	-2571
正好	-2572
此处	-2573
清净	-2574
玩耍	-2575
生了	-2576
用的	-2577
的大	-2578
的很	-2579
真的	-2580
睁眼	-2581
瞧着	-2582
素习	-2583
细看	-2584
老了	-2585
节度	-2586
若要	-2587
要问	-2588
见面	-2589
解劝	-2590
费心	-2591
跑来	-2592
身后	-2593
这又	-2594
遭塌	-2595
那玉	-2596
郡王	-2597
金玉	-2598
镜子	-2599
难得	-2600
面上	-2601
风月	-2602
不受用	-2603
也不大	-2604
了不成	-2605
二门上	-2606
什么呢	-2607
他母亲	-2608
但不知	-2609
便知是	-2610
写道是	-2611
又吩咐	-2612
叫你们	-2613
她二人	-2614
姐姐们	-2615
宝玉等	-2616
屋里的	-2617
岂不好	-2618
成日家	-2619
我瞧瞧	-2620
我还有	-2621
打发了	-2622
撑不住	-2623
既如此	-2624
李纨等	-2625
栊翠庵	-2626
梨香院	-2627
给他们	-2628
给你们	-2629
自不必	-2630
蘅芜苑	-2631
见贾政	-2632
请大夫	-2633
起身来	-2634
这样说	-2635
远远的	-2636
鸳鸯等	-2637
▁第一百	-2638
一面说着	-2639
你们两个	-2640
只见袭人	-2641
潇湘馆来	-2642
紫鹃笑道	-2643
见王夫人	-2644
这般光景	-2645
薛姨妈笑道	-2646
!’	-2647
一起	-2648
不拘	-2649
两三	-2650
两府	-2651
两眼	-2652
中的	-2653
为是	-2654
主上	-2655
举止	-2656
乐得	-2657
也别	-2658
了脸	-2659
作个	-2660
作伴	-2661
作践	-2662
佩凤	-2663
依我	-2664
依旧	-2665
元春	-2666
先是	-2667
前面	-2668
剩的	-2669
匣子	-2670
十倍	-2671
升了	-2672
又都	-2673
只等	-2674
哪个	-2675
坐一	-2676
声音	-2677
头脑	-2678
婶婶	-2679
字为	-2680
学问	-2681
害怕	-2682
干了	-2683
平常	-2684
开手	-2685
必有	-2686
快请	-2687
怀里	-2688
怔怔	-2689
情愿	-2690
我却	-2691
我因	-2692
才说	-2693
执意	-2694
承望	-2695
教导	-2696
早知	-2697
晚了	-2698
机会	-2699
母子	-2700
比先	-2701
浑身	-2702
消息	-2703
混帐	-2704
温柔	-2705
犹未	-2706
独自	-2707
盒子	-2708
省事	-2709
看她	-2710
看守	-2711
着人	-2712
着嘴	-2713
祖父	-2714
竟不	-2715
精致	-2716
经过	-2717
谢了	-2718
贾敬	-2719
走罢	-2720
身旁	-2721
过一	-2722
还可	-2723
还敢	-2724
通灵	-2725
长叹	-2726
闺阁	-2727
院里	-2728
齐了	-2729
一个小	-2730
一件事	-2731
不大好	-2732
个不住	-2733
也不肯	-2734
了一件	-2735
了下来	-2736
你不用	-2737
你也不	-2738
你心里	-2739
你自己	-2740
你这个	-2741
凤姐等	-2742
十二个	-2743
只听得	-2744
在园里	-2745
大妹妹	-2746
好东西	-2747
小太监	-2748
平姑娘	-2749
往哪里	-2750
我也是	-2751
我怎么	-2752
我明儿	-2753
我父亲	-2754
我的儿	-2755
来瞧瞧	-2756
湘莲道	-2757
的丫鬟	-2758
的样子	-2759
稻香村	-2760
笑了一	-2761
自己也	-2762
见过了	-2763
记挂着	-2764
贾赦等	-2765
贾雨村	-2766
走进来	-2767
这一句	-2768
这孩子	-2769
送来的	-2770
林黛玉道	-2771
瞧了一瞧	-2772
老太太和	-2773
小丫头子们	-2774
王夫人笑道	-2775
一动	-2776
一千	-2777
一枝	-2778
一言	-2779
上回	-2780
上有	-2781
下流	-2782
不懂	-2783
不放	-2784
不由	-2785
不答	-2786
不论	-2787
中了	-2788
之母	-2789
了口	-2790
事务	-2791
二姨	-2792
亲近	-2793
他在	-2794
他还	-2795
作声	-2796
你道	-2797
侍立	-2798
入画	-2799
养的	-2800
写字	-2801
几件	-2802
几处	-2803
几岁	-2804
出至	-2805
办理	-2806
功名	-2807
十八	-2808
半个	-2809
半晌	-2810
南安	-2811
去处	-2812
又兼	-2813
吃些	-2814
呆子	-2815
喜之	-2816
嚷道	-2817
四的	-2818
固然	-2819
多谢	-2820
大凡	-2821
大有	-2822
太虚	-2823
奉承	-2824
如意	-2825
娘的	-2826
子侄	-2827
学生	-2828
宁可	-2829
定是	-2830
宫裁	-2831
将军	-2832
少时	-2833
带来	-2834
干娘	-2835
并非	-2836
往常	-2837
性命	-2838
性子	-2839
想得	-2840
慌了	-2841
我叫	-2842
我若	-2843
我都	-2844
房舍	-2845
打架	-2846
托着	-2847
把她	-2848
方回	-2849
方是	-2850
无情	-2851
无言	-2852
时节	-2853
是有	-2854
未曾	-2855
李绮	-2856
比如	-2857
没事	-2858
没良	-2859
烧了	-2860
爷儿	-2861
猴儿	-2862
疯了	-2863
皇上	-2864
目今	-2865
看视	-2866
真个	-2867
真心	-2868
知他	-2869
笔砚	-2870
等你	-2871
等到	-2872
终是	-2873
翻身	-2874
葫芦	-2875
要到	-2876
诗社	-2877
该死	-2878
诰命	-2879
说罢	-2880
谢恩	-2881
辈子	-2882
这才	-2883
这玉	-2884
送殡	-2885
遣人	-2886
闲着	-2887
闹到	-2888
陈设	-2889
随着	-2890
顺着	-2891
齐整	-2892
▁此时	-2893
▁贾珍	-2894
一个月	-2895
一家子	-2896
三妹妹	-2897
上茶来	-2898
不用说	-2899
不见了	-2900
东西来	-2901
也有些	-2902
了一番	-2903
了许多	-2904
众媳妇	-2905
你们就	-2906
俗语说	-2907
原字为	-2908
回家去	-2909
回来说	-2910
如今且	-2911
如今又	-2912
家的人	-2913
岂不是	-2914
带来的	-2915
平儿忙	-2916
怔怔的	-2917
我也没	-2918
我和你	-2919
正经事	-2920
玩意儿	-2921
的事来	-2922
的意思	-2923
的说道	-2924
虽说是	-2925
诧异道	-2926
说不得	-2927
说话时	-2928
贾母便	-2929
贾蓉道	-2930
走过来	-2931
过不去	-2932
这丫头	-2933
这里的	-2934
进去了	-2935
那姑子	-2936
那里还	-2937
闹起来	-2938
不是别人	-2939
也不答言	-2940
你这会子	-2941
几两银子	-2942
宝玉见她	-2943
宝钗听了	-2944
我的主意	-2945
正在那里	-2946
胡涂东西	-2947
说了几句	-2948
贾政笑道	-2949
贾母听说	-2950
贾琏听了	-2951
邢夫人道	-2952
、“	-2953
》、	-2954
一根	-2955
一遍	-2956
一钟	-2957
三间	-2958
不一	-2959
不少	-2960
不等	-2961
不胜	-2962
不自	-2963
不迭	-2964
世交	-2965
世袭	-2966
两天	-2967
为难	-2968
二两	-2969
云儿	-2970
人呢	-2971
令其	-2972
伏侍	-2973
似乎	-2974
似有	-2975
何三	-2976
何如	-2977
你好	-2978
你家	-2979
使了	-2980
倒有	-2981
倒还	-2982
儿孙	-2983
关了	-2984
冤家	-2985
准了	-2986
出神	-2987
刚至	-2988
前年	-2989
劝他	-2990
劝慰	-2991
包儿	-2992
千金	-2993
去请	-2994
又与	-2995
又和	-2996
取来	-2997
古今	-2998
另外	-2999
只用	-3000
告了	-3001
告假	-3002
啼哭	-3003
喝命	-3004
回话	-3005
因命	-3006
在后	-3007
多事	-3008
多情	-3009
天已	-3010
奶娘	-3011
奶子	-3012
她倒	-3013
她还	-3014
好人	-3015
家伙	-3016
居住	-3017
希罕	-3018
张家	-3019
当年	-3020
影儿	-3021
悲伤	-3022
惹人	-3023
慌张	-3024
成一	-3025
打的	-3026
拐子	-3027
摆上	-3028
文官	-3029
斗篷	-3030
旧年	-3031
是极	-3032
更有	-3033
更比	-3034
未及	-3035
本事	-3036
李婶	-3037
来罢	-3038
泪痕	-3039
洗手	-3040
游玩	-3041
灯笼	-3042
狗儿	-3043
玫瑰	-3044
甚至	-3045
画儿	-3046
痛哭	-3047
白的	-3048
的气	-3049
看书	-3050
窗下	-3051
等她	-3052
细问	-3053
而不	-3054
肚子	-3055
自古	-3056
落泪	-3057
裙子	-3058
詹光	-3059
让她	-3060
请医	-3061
请教	-3062
走的	-3063
走着	-3064
跪着	-3065
那位	-3066
都没	-3067
都道	-3068
颦儿	-3069
风筝	-3070
骨肉	-3071
麒麟	-3072
齐备	-3073
▁雨村	-3074
上夜的	-3075
不得的	-3076
不相干	-3077
也只好	-3078
书房里	-3079
了一半	-3080
了一日	-3081
了一杯	-3082
二十个	-3083
只不过	-3084
叫袭人	-3085
和宝钗	-3086
回去罢	-3087
因问道	-3088
在宝玉	-3089
大家又	-3090
奴才们	-3091
好孩子	-3092
宝玉一	-3093
家里的	-3094
怪不得	-3095
我们也	-3096
我去了	-3097
我替你	-3098
暗暗的	-3099
说闲话	-3100
这几个	-3101
邢大舅	-3102
那小厮	-3103
那里有	-3104
▁林黛玉	-3105
▁王夫人	-3106
▁至次日	-3107
也不知是	-3108
亲家太太	-3109
你们只管	-3110
你在这里	-3111
俗语说的	-3112
只见黛玉	-3113
咱们两个	-3114
宝玉见了	-3115
我也不敢	-3116
滴下泪来	-3117
老太太说	-3118
说了出来	-3119
这还了得	-3120
那里来的	-3121
只见王夫人	-3122
这是怎么说	-3123
”“	-3124
一双	-3125
一贴	-3126
下处	-3127
不吃	-3128
不容	-3129
不惯	-3130
不时	-3131
不远	-3132
不顾	-3133
世上	-3134
世人	-3135
世兄	-3136
两家	-3137
两手	-3138
之上	-3139
之地	-3140
之际	-3141
也可	-3142
乱叫	-3143
二门	-3144
人人	-3145
从今	-3146
伤了	-3147
但凡	-3148
住下	-3149
你到	-3150
便拉	-3151
便都	-3152
信了	-3153
俱是	-3154
入了	-3155
八月	-3156
其意	-3157
再请	-3158
出家	-3159
功课	-3160
十四	-3161
即命	-3162
却不	-3163
原要	-3164
厨房	-3165
去看	-3166
取出	-3167
叫做	-3168
可别	-3169
叹息	-3170
吃去	-3171
唱戏	-3172
四儿	-3173
因叫	-3174
因她	-3175
因想	-3176
外甥	-3177
大概	-3178
天恩	-3179
奶妈	-3180
她这	-3181
妃子	-3182
婆娘	-3183
字迹	-3184
家事	-3185
寻死	-3186
尚有	-3187
就算	-3188
常常	-3189
幻境	-3190
当家	-3191
待书	-3192
得去	-3193
御史	-3194
心肠	-3195
我见	-3196
扶了	-3197
拭泪	-3198
接过	-3199
携了	-3200
方便	-3201
方散	-3202
晓得	-3203
服药	-3204
来家	-3205
此言	-3206
活计	-3207
清客	-3208
灵前	-3209
燕窝	-3210
生出	-3211
的情	-3212
的花	-3213
皆系	-3214
着你	-3215
知她	-3216
第三	-3217
脱了	-3218
若干	-3219
茶盘	-3220
莫若	-3221
蠢物	-3222
要是	-3223
设着	-3224
诗词	-3225
说给	-3226
调治	-3227
走动	-3228
趁早	-3229
迎接	-3230
违拗	-3231
连个	-3232
连连	-3233
送你	-3234
送出	-3235
通共	-3236
那知	-3237
重了	-3238
金刚	-3239
银两	-3240
随后	-3241
露出	-3242
饭来	-3243
魂魄	-3244
▁这日	-3245
》、《	-3246
一个是	-3247
一块儿	-3248
不多时	-3249
也不便	-3250
了一块	-3251
了一顿	-3252
了两声	-3253
了几句	-3254
了没有	-3255
些闲话	-3256
他们的	-3257
你今儿	-3258
你们都	-3259
你这一	-3260
保不住	-3261
凤姐忙	-3262
只有一	-3263
哥儿的	-3264
姨奶奶	-3265
宝玉和	-3266
就忘了	-3267
得罪了	-3268
怎么个	-3269
我正要	-3270
我这一	-3271
所以才	-3272
据我看	-3273
明儿再	-3274
有人来	-3275
有造化	-3276
李宫裁	-3277
正是呢	-3278
没有人	-3279
满屋里	-3280
现成的	-3281
的人都	-3282
红玉道	-3283
衙门里	-3284
请老爷	-3285
谁叫你	-3286
贾母说	-3287
还不知	-3288
这园子	-3289
这才是	-3290
这时候	-3291
遣人来	-3292
那媳妇	-3293
问了好	-3294
一宿无话	-3295
上夜的人	-3296
什么相干	-3297
只见凤姐	-3298
听见这话	-3299
如今且说	-3300
没有的事	-3301
虽如此说	-3302
袭人听了	-3303
说话之间	-3304
回到自己房中	-3305
的话说了一遍	-3306
,《	-3307
一眼	-3308
一趟	-3309
一连	-3310
一闻	-3311
丈夫	-3312
上次	-3313
不与	-3314
不识	-3315
世面	-3316
两位	-3317
两次	-3318
丸药	-3319
之名	-3320
之态	-3321
也忙	-3322
了眼	-3323
了酒	-3324
五六	-3325
今夜	-3326
以来	-3327
住的	-3328
何妨	-3329
你该	-3330
偏偏	-3331
全了	-3332
册子	-3333
凭他	-3334
分了	-3335
别管	-3336
包袱	-3337
匾额	-3338
原委	-3339
又忙	-3340
发怔	-3341
各样	-3342
同你	-3343
喝道	-3344
回答	-3345
她了	-3346
官的	-3347
宝贝	-3348
害臊	-3349
已将	-3350
已有	-3351
带累	-3352
年下	-3353
应该	-3354
府上	-3355
当初	-3356
当时	-3357
待我	-3358
得着	-3359
必得	-3360
忙去	-3361
忙得	-3362
找了	-3363
掌灯	-3364
改了	-3365
政老	-3366
无心	-3367
日期	-3368
旧病	-3369
早又	-3370
时辰	-3371
昨晚	-3372
更衣	-3373
朦胧	-3374
来时	-3375
枕上	-3376
案上	-3377
歪着	-3378
气了	-3379
水溶	-3380
满脸	-3381
点心	-3382
甚是	-3383
生怕	-3384
略略	-3385
知己	-3386
破了	-3387
笑得	-3388
算来	-3389
算计	-3390
素知	-3391
红的	-3392
纸钱	-3393
耽搁	-3394
艰难	-3395
英莲	-3396
藕香	-3397
衙役	-3398
袄儿	-3399
西边	-3400
解释	-3401
记着	-3402
说到	-3403
赏了	-3404
赶到	-3405
趁势	-3406
躺着	-3407
过后	-3408
这人	-3409
这就	-3410
这还	-3411
那小	-3412
都中	-3413
里外	-3414
长进	-3415
闹着	-3416
顺路	-3417
骑马	-3418
鬼祟	-3419
▁到了	-3420
▁那时	-3421
▁鸳鸯	-3422
一面想	-3423
上上下	-3424
下来了	-3425
不敢说	-3426
为这个	-3427
也未必	-3428
书房中	-3429
了两口	-3430
众婆子	-3431
但只是	-3432
你们也	-3433
倒不如	-3434
厨房里	-3435
去告诉	-3436
叫什么	-3437
吩咐了	-3438
听这话	-3439
在旁边	-3440
坐了一	-3441
多着呢	-3442
大姐儿	-3443
头一件	-3444
好些了	-3445
孩子们	-3446
尤老娘	-3447
我们都	-3448
我告诉	-3449
探春等	-3450
明白人	-3451
晴雯等	-3452
有多少	-3453
有年纪	-3454
有我呢	-3455
有许多	-3456
林丫头	-3457
梳洗了	-3458
椅子上	-3459
比别人	-3460
王一贴	-3461
王熙凤	-3462
的人家	-3463
的话来	-3464
睁开眼	-3465
睡不着	-3466
第二件	-3467
管事的	-3468
莺儿道	-3469
见黛玉	-3470
这个话	-3471
这倒是	-3472
这可是	-3473
顾不得	-3474
预备下	-3475
黛玉便	-3476
黛玉又	-3477
了不得了	-3478
众人听说	-3479
作什么呢	-3480
只有一个	-3481
哪里知道	-3482
回至房中	-3483
怎么样了	-3484
打听打听	-3485
滚下泪来	-3486
老婆子们	-3487
众人都笑了	-3488
答应着去了	-3489
金桂的母亲	-3490
--	-3491
一共	-3492
一字	-3493
一所	-3494
一旁	-3495
一本	-3496
一气	-3497
一群	-3498
一问	-3499
不乐	-3500
不差	-3501
不开	-3502
不真	-3503
不闻	-3504
之礼	-3505
亏你	-3506
些的	-3507
从头	-3508
仪门	-3509
体贴	-3510
何人	-3511
你竟	-3512
依了	-3513
便觉	-3514
修行	-3515
做得	-3516
先去	-3517
八个	-3518
关门	-3519
内有	-3520
再看	-3521
再问	-3522
冷笑	-3523
出园	-3524
刚要	-3525
前后	-3526
劝我	-3527
十七	-3528
十三	-3529
十九	-3530
去瞧	-3531
去问	-3532
又往	-3533
又无	-3534
又骂	-3535
变了	-3536
只叫	-3537
只知	-3538
可有	-3539
同了	-3540
向来	-3541
周到	-3542
和人	-3543
咕咕	-3544
唧唧	-3545
唬的	-3546
喝着	-3547
因我	-3548
圈儿	-3549
大姐	-3550
奇事	-3551
好似	-3552
好好	-3553
子呢	-3554
孽障	-3555
完事	-3556
宗祠	-3557
家产	-3558
将就	-3559
尊重	-3560
展眼	-3561
工部	-3562
已到	-3563
已定	-3564
帐子	-3565
帖子	-3566
开心	-3567
彩明	-3568
往年	-3569
忘八	-3570
忙又	-3571
忙赶	-3572
念头	-3573
恨得	-3574
惯了	-3575
想头	-3576
想想	-3577
成个	-3578
我劝	-3579
我家	-3580
我自	-3581
手一	-3582
手来	-3583
打彩	-3584
把脸	-3585
抽身	-3586
拿些	-3587
摆酒	-3588
方知	-3589
无处	-3590
无妨	-3591
日日	-3592
时侯	-3593
是好	-3594
暖阁	-3595
有不	-3596
有好	-3597
有心	-3598
有钱	-3599
本家	-3600
来历	-3601
来领	-3602
棺材	-3603
模样	-3604
正面	-3605
此是	-3606
每年	-3607
没好	-3608
洗脸	-3609
活着	-3610
海疆	-3611
游廊	-3612
焦大	-3613
照着	-3614
爱吃	-3615
珠儿	-3616
生在	-3617
相逢	-3618
省些	-3619
真了	-3620
着的	-3621
着脸	-3622
睡罢	-3623
碧痕	-3624
示下	-3625
神魂	-3626
称赞	-3627
空空	-3628
素云	-3629
终究	-3630
绣橘	-3631
翻来	-3632
胡思	-3633
至今	-3634
至晚	-3635
花自	-3636
芸儿	-3637
芹儿	-3638
茯苓	-3639
菊花	-3640
落花	-3641
蓉儿	-3642
要说	-3643
认了	-3644
试试	-3645
说与	-3646
说过	-3647
谁去	-3648
谁的	-3649
起了	-3650
起的	-3651
躺下	-3652
过门	-3653
迎面	-3654
还未	-3655
锦衣	-3656
长了	-3657
青儿	-3658
香袋	-3659
一个个	-3660
一定是	-3661
三个字	-3662
三四个	-3663
上来了	-3664
不免又	-3665
不得闲	-3666
不理论	-3667
与黛玉	-3668
也没见	-3669
了一看	-3670
了一阵	-3671
了几天	-3672
了几日	-3673
了出去	-3674
人人都	-3675
你姐姐	-3676
你父亲	-3677
便出来	-3678
便有些	-3679
别的事	-3680
原来这	-3681
又气又	-3682
又添了	-3683
只当是	-3684
吃了半	-3685
吃了酒	-3686
和我们	-3687
和我说	-3688
回房去	-3689
在贾母	-3690
大好了	-3691
如今我	-3692
家去了	-3693
将方才	-3694
小丫鬟	-3695
微微的	-3696
必定是	-3697
恨不得	-3698
我出去	-3699
我又不	-3700
房里的	-3701
才知道	-3702
拿了来	-3703
拿什么	-3704
收拾了	-3705
有两个	-3706
有的说	-3707
死去活	-3708
爬起来	-3709
猜着了	-3710
的人来	-3711
的小厮	-3712
竟不能	-3713
精打彩	-3714
翠缕道	-3715
藕香榭	-3716
要什么	-3717
说起来	-3718
过日子	-3719
迎上来	-3720
这也不	-3721
这如今	-3722
进园来	-3723
进来的	-3724
那边的	-3725
那里就	-3726
那里肯	-3727
都是些	-3728
香菱道	-3729
鬼祟祟	-3730
▁原来这	-3731
上上下下	-3732
不知好歹	-3733
不知道的	-3734
也就罢了	-3735
你林妹妹	-3736
到王夫人	-3737
只见贾母	-3738
吓了一跳	-3739
在那里呢	-3740
外孙女儿	-3741
女孩子们	-3742
宝玉忙道	-3743
没了主意	-3744
流下泪来	-3745
的了不得	-3746
鬼鬼祟祟	-3747
▁宝玉看了	-3748
刘姥姥笑道	-3749
薛姨妈听了	-3750
,”	-3751
▁〔	-3752
▁贾	-3753
▁这	-3754
一套	-3755
一死	-3756
一碗	-3757
一道	-3758
三千	-3759
上京	-3760
不发	-3761
不叫	-3762
不合	-3763
不已	-3764
不甚	-3765
不给	-3766
不配	-3767
世职	-3768
东府	-3769
东风	-3770
两杯	-3771
两样	-3772
中来	-3773
为着	-3774
之内	-3775
之子	-3776
之孙	-3777
也多	-3778
书子	-3779
买办	-3780
亲密	-3781
人事	-3782
他呢	-3783
他道	-3784
仙姑	-3785
任意	-3786
住在	-3787
你有	-3788
侍者	-3789
便与	-3790
促狭	-3791
保养	-3792
假意	-3793
儿上	-3794
先到	-3795
关系	-3796
养神	-3797
再作	-3798
冷了	-3799
几位	-3800
凤凰	-3801
出个	-3802
出城	-3803
出嫁	-3804
出息	-3805
刑部	-3806
到他	-3807
到她	-3808
动静	-3809
劳乏	-3810
又被	-3811
台上	-3812
叹气	-3813
吃得	-3814
吃罢	-3815
名姓	-3816
命她	-3817
和气	-3818
喜的	-3819
四面	-3820
因他	-3821
在他	-3822
垂泪	-3823
埋怨	-3824
堂官	-3825
复了	-3826
多大	-3827
多病	-3828
多说	-3829
大惊	-3830
大病	-3831
天亮	-3832
天明	-3833
好不	-3834
好看	-3835
姻缘	-3836
娘子	-3837
娼妇	-3838
安了	-3839
安稳	-3840
家内	-3841
家眷	-3842
察院	-3843
小戏	-3844
尝尝	-3845
就像	-3846
就如	-3847
就连	-3848
山子	-3849
崽子	-3850
巴巴	-3851
带去	-3852
年的	-3853
开恩	-3854
当的	-3855
当面	-3856
得上	-3857
心酸	-3858
快别	-3859
快来	-3860
怀内	-3861
怎奈	-3862
总没	-3863
意外	-3864
慌得	-3865
懒待	-3866
戏的	-3867
我为	-3868
打得	-3869
抱住	-3870
择了	-3871
掩了	-3872
搭讪	-3873
摇摇	-3874
放声	-3875
散散	-3876
文书	-3877
料着	-3878
新奇	-3879
方可	-3880
无趣	-3881
时分	-3882
晚生	-3883
更是	-3884
月的	-3885
有病	-3886
极好	-3887
梯己	-3888
正欲	-3889
正理	-3890
毫无	-3891
江南	-3892
灯光	-3893
熟了	-3894
父子	-3895
疏散	-3896
的诗	-3897
盘算	-3898
真正	-3899
石上	-3900
礼的	-3901
竟没	-3902
端了	-3903
管教	-3904
素来	-3905
纵然	-3906
纷纷	-3907
终久	-3908
给的	-3909
络子	-3910
缘故	-3911
脂粉	-3912
脑袋	-3913
脚步	-3914
自思	-3915
落了	-3916
褂子	-3917
要吃	-3918
要死	-3919
走去	-3920
走进	-3921
趣儿	-3922
轮流	-3923
还强	-3924
还等	-3925
进宫	-3926
进益	-3927
远了	-3928
送人	-3929
递给	-3930
道谢	-3931
都好	-3932
酒席	-3933
长的	-3934
靠着	-3935
须要	-3936
领命	-3937
风寒	-3938
馒头	-3939
鸡蛋	-3940
,――	-3941
▁只见	-3942
▁探春	-3943
不住的	-3944
不明白	-3945
也不怕	-3946
也不顾	-3947
也有个	-3948
了一张	-3949
了一碗	-3950
了去了	-3951
了我们	-3952
了过来	-3953
二姑娘	-3954
他的手	-3955
低了头	-3956
你们这	-3957
你出去	-3958
你奶奶	-3959
你这话	-3960
使眼色	-3961
写出来	-3962
凤姐也	-3963
凤姐的	-3964
到如今	-3965
又听见	-3966
又来了	-3967
又问道	-3968
叫人去	-3969
吃了茶	-3970
吩咐道	-3971
听见你	-3972
回太太	-3973
回头向	-3974
回来再	-3975
太太和	-3976
她母亲	-3977
如今要	-3978
宝蟾道	-3979
家下人	-3980
就走了	-3981
平儿也	-3982
我想着	-3983
找不着	-3984
把这个	-3985
拿了去	-3986
放了心	-3987
李婶娘	-3988
汗巾子	-3989
没有了	-3990
炕沿上	-3991
的生日	-3992
磕了头	-3993
给我们	-3994
老子娘	-3995
自己又	-3996
若不是	-3997
见宝钗	-3998
说得是	-3999
说话呢	-4000
请二爷	-4001
请太太	-4002
请贾母	-4003
贾母因	-4004
过来的	-4005
还只管	-4006
这两天	-4007
那一年	-4008
都笑了	-4009
金桂道	-4010
院子里	-4011
难为你	-4012
雨村道	-4013
黛玉忙	-4014
一把拉住	-4015
众人都说	-4016
到这里来	-4017
告诉了她	-4018
回了太太	-4019
在王夫人	-4020
在这里呢	-4021
坐了一坐	-4022
大观园中	-4023
如何使得	-4024
得了不得	-4025
我们家里	-4026
手里拿着	-4027
拍手笑道	-4028
晴雯笑道	-4029
有什么话	-4030
死去活来	-4031
王夫人又	-4032
珍大奶奶	-4033
的是什么	-4034
笑了一笑	-4035
自不必说	-4036
薛姨妈等	-4037
贾母因问	-4038
还是这么	-4039
这也罢了	-4040
麝月笑道	-4041
宝玉听了这话	-4042
:’	-4043
▁因	-4044
》《	-4045
一叠	-4046
一只	-4047
一班	-4048
三字	-4049
三月	-4050
三爷	-4051
上炕	-4052
下棋	-4053
下雪	-4054
不枉	-4055
不犯	-4056
不舍	-4057
不负	-4058
不迟	-4059
与众	-4060
世翁	-4061
东道	-4062
主仆	-4063
主儿	-4064
之下	-4065
之日	-4066
了事	-4067
了心	-4068
亏得	-4069
些儿	-4070
亲身	-4071
人品	-4072
人情	-4073
他那	-4074
令郎	-4075
传进	-4076
作揖	-4077
你一	-4078
你吃	-4079
佳人	-4080
依言	-4081
便先	-4082
便用	-4083
倒觉	-4084
做个	-4085
偷着	-4086
傻子	-4087
像个	-4088
先儿	-4089
入官	-4090
公道	-4091
再四	-4092
再过	-4093
凡有	-4094
出这	-4095
分头	-4096
刚到	-4097
力的	-4098
办去	-4099
动手	-4100
半夜	-4101
原系	-4102
去说	-4103
取去	-4104
口声	-4105
古董	-4106
只装	-4107
可恨	-4108
可比	-4109
各各	-4110
各房	-4111
吴新	-4112
呈上	-4113
哄我	-4114
嘴儿	-4115
嘴巴	-4116
嘴的	-4117
四两	-4118
围屏	-4119
围着	-4120
土地	-4121
在大	-4122
在那	-4123
坐车	-4124
声儿	-4125
外任	-4126
大愈	-4127
她一	-4128
她娘	-4129
她要	-4130
好话	-4131
妆奁	-4132
子一	-4133
官员	-4134
实时	-4135
宫里	-4136
封肃	-4137
小时	-4138
少了	-4139
就用	-4140
尽着	-4141
席上	-4142
应嘉	-4143
应着	-4144
廊上	-4145
廊下	-4146
开口	-4147
弄到	-4148
当中	-4149
得来	-4150
怀古	-4151
想要	-4152
意的	-4153
我好	-4154
我怕	-4155
我最	-4156
我白	-4157
所在	-4158
打她	-4159
找到	-4160
把他	-4161
抱厦	-4162
抱着	-4163
拉她	-4164
拜寿	-4165
提笔	-4166
搪塞	-4167
携手	-4168
撒花	-4169
斟酌	-4170
新闻	-4171
无干	-4172
无闻	-4173
既有	-4174
早早	-4175
晌午	-4176
景况	-4177
暗中	-4178
有此	-4179
服了	-4180
杏花	-4181
来得	-4182
果品	-4183
查问	-4184
根基	-4185
正事	-4186
死后	-4187
殷勤	-4188
气色	-4189
没得	-4190
没来	-4191
流泪	-4192
添上	-4193
溺爱	-4194
牡丹	-4195
特来	-4196
猩毡	-4197
猫儿	-4198
王氏	-4199
玩去	-4200
珍宝	-4201
理会	-4202
疼她	-4203
痴情	-4204
白日	-4205
的也	-4206
的字	-4207
的药	-4208
相伴	-4209
相好	-4210
相看	-4211
真切	-4212
着忙	-4213
种种	-4214
穿堂	-4215
端详	-4216
笑的	-4217
红香	-4218
给人	-4219
缠绵	-4220
耐烦	-4221
耳边	-4222
胡闹	-4223
腰门	-4224
自悔	-4225
色的	-4226
苏州	-4227
荣二	-4228
荷叶	-4229
蔷薇	-4230
行了	-4231
要求	-4232
该罚	-4233
谁不	-4234
费事	-4235
赌钱	-4236
赏月	-4237
起个	-4238
跟随	-4239
轻薄	-4240
辉煌	-4241
这回	-4242
这番	-4243
送与	-4244
遇着	-4245
钥匙	-4246
铺盖	-4247
长史	-4248
问着	-4249
陪房	-4250
青埂	-4251
靠背	-4252
风雨	-4253
鼻子	-4254
’,‘	-4255
”、“	-4256
▁二人	-4257
▁贾蓉	-4258
。――	-4259
一个字	-4260
一回儿	-4261
不喜欢	-4262
不得已	-4263
不认得	-4264
不过来	-4265
东西去	-4266
丢开手	-4267
两口子	-4268
也不可	-4269
也不曾	-4270
也不枉	-4271
也不要	-4272
也使得	-4273
也无益	-4274
也来了	-4275
也没了	-4276
了两三	-4277
了两天	-4278
了什么	-4279
二十两	-4280
亲戚们	-4281
什么是	-4282
从那边	-4283
众小厮	-4284
你们家	-4285
值什么	-4286
再不能	-4287
几个字	-4288
凤姐因	-4289
别处去	-4290
到那边	-4291
又说了	-4292
只得又	-4293
只见那	-4294
叫了来	-4295
吃一杯	-4296
吴新登	-4297
和你们	-4298
和平儿	-4299
和袭人	-4300
喜不自	-4301
回家来	-4302
在心里	-4303
坐一坐	-4304
坐起来	-4305
她出去	-4306
好了些	-4307
好姑娘	-4308
宝玉方	-4309
宝玉来	-4310
宝玉说	-4311
宝钗便	-4312
并几个	-4313
当铺里	-4314
心里也	-4315
怎么处	-4316
我今日	-4317
我哪里	-4318
我母亲	-4319
我的话	-4320
我记得	-4321
打了个	-4322
拍手道	-4323
拿起来	-4324
文官等	-4325
是我的	-4326
是谁的	-4327
有一种	-4328
殊不知	-4329
点了一	-4330
琴姑娘	-4331
用之物	-4332
的事了	-4333
的婆子	-4334
的媳妇	-4335
眼圈儿	-4336
秋纹道	-4337
等不得	-4338
自己却	-4339
舅太爷	-4340
花自芳	-4341
虽如此	-4342
袭人见	-4343
要紧的	-4344
说话的	-4345
贾环道	-4346
赔不是	-4347
赵嬷嬷	-4348
跟着我	-4349
还罢了	-4350
这点子	-4351
遣人去	-4352
那里的	-4353
都有了	-4354
里头的	-4355
银子来	-4356
难为他	-4357
鸳鸯的	-4358
麝月等	-4359
▁刘姥姥	-4360
也没什么	-4361
于是大家	-4362
倒了茶来	-4363
原字为左	-4364
只得回来	-4365
听到这里	-4366
和老太太	-4367
哭了一场	-4368
坐了一回	-4369
太太跟前	-4370
女孩儿家	-4371
心里想道	-4372
忽又想起	-4373
换了衣服	-4374
掉下泪来	-4375
明日一早	-4376
王夫人也	-4377
着老太太	-4378
给老太太	-4379
贾母房中	-4380
还不知道	-4381
连我也不	-4382
香菱笑道	-4383
鲍二家的	-4384
摸不着头脑	-4385
老太太那边	-4386
老太太那里	-4387
这么大年纪	-4388
》;	-4389
一次	-4390
一篇	-4391
一股	-4392
七言	-4393
下落	-4394
下马	-4395
不小	-4396
不收	-4397
不服	-4398
不离	-4399
不通	-4400
且别	-4401
中觉	-4402
之状	-4403
之罪	-4404
之语	-4405
书办	-4406
乱想	-4407
二房	-4408
二更	-4409
亏了	-4410
五言	-4411
些来	-4412
亦不	-4413
亦可	-4414
亦无	-4415
亦系	-4416
人参	-4417
人氏	-4418
人间	-4419
他既	-4420
传话	-4421
伤起	-4422
你听	-4423
你才	-4424
保佑	-4425
俞禄	-4426
倒把	-4427
倒说	-4428
先来	-4429
内外	-4430
写道	-4431
凄凉	-4432
几百	-4433
出身	-4434
出阁	-4435
分儿	-4436
分离	-4437
利钱	-4438
别是	-4439
到那	-4440
前人	-4441
医生	-4442
单子	-4443
单管	-4444
南京	-4445
原为	-4446
去世	-4447
去取	-4448
又在	-4449
又大	-4450
发作	-4451
口道	-4452
只留	-4453
只看	-4454
可叹	-4455
吁吁	-4456
咬牙	-4457
哭喊	-4458
唠叨	-4459
喜悦	-4460
四娘	-4461
团圆	-4462
围随	-4463
在京	-4464
在前	-4465
在她	-4466
垂头	-4467
塞责	-4468
声张	-4469
大字	-4470
大礼	-4471
太妃	-4472
太平	-4473
央求	-4474
夹道	-4475
奈何	-4476
奉旨	-4477
好呢	-4478
好笑	-4479
妯娌	-4480
婆媳	-4481
子儿	-4482
子去	-4483
子孙	-4484
字的	-4485
安分	-4486
安身	-4487
宝叔	-4488
家了	-4489
宽慰	-4490
小小	-4491
尚荣	-4492
就打	-4493
已死	-4494
已知	-4495
常说	-4496
年老	-4497
幸喜	-4498
床前	-4499
廊檐	-4500
开的	-4501
弄了	-4502
张口	-4503
心神	-4504
必须	-4505
忌讳	-4506
怔了	-4507
怪的	-4508
总是	-4509
悠悠	-4510
悲戚	-4511
想了	-4512
我听	-4513
我妈	-4514
我那	-4515
戴着	-4516
扶起	-4517
把心	-4518
换上	-4519
排场	-4520
接来	-4521
推他	-4522
提着	-4523
揭起	-4524
敢是	-4525
断了	-4526
方罢	-4527
无声	-4528
旧的	-4529
是一	-4530
昼夜	-4531
有余	-4532
有情	-4533
未见	-4534
村庄	-4535
来求	-4536
查看	-4537
栏杆	-4538
模糊	-4539
欠身	-4540
正该	-4541
此话	-4542
死人	-4543
比你	-4544
比我	-4545
活了	-4546
淫妇	-4547
渐次	-4548
温习	-4549
满口	-4550
满屋	-4551
漱盂	-4552
灵柩	-4553
点缀	-4554
热的	-4555
猜着	-4556
玲珑	-4557
生死	-4558
疼得	-4559
痰盒	-4560
的么	-4561
的这	-4562
相与	-4563
相貌	-4564
看你	-4565
眼中	-4566
碟子	-4567
穿戴	-4568
竟有	-4569
笔墨	-4570
等他	-4571
管事	-4572
绢子	-4573
羞得	-4574
老尼	-4575
脏了	-4576
脚的	-4577
自便	-4578
舌头	-4579
芭蕉	-4580
花样	-4581
荣华	-4582
落得	-4583
虽好	-4584
街上	-4585
要来	-4586
说这	-4587
请问	-4588
谨慎	-4589
贾菌	-4590
起坐	-4591
趁此	-4592
越想	-4593
跺脚	-4594
软了	-4595
过活	-4596
迎着	-4597
近因	-4598
远近	-4599
连夜	-4600
送信	-4601
逼着	-4602
遂心	-4603
里边	-4604
重重	-4605
金钏	-4606
针黹	-4607
钱来	-4608
长安	-4609
阶下	-4610
除非	-4611
难以	-4612
静静	-4613
首饰	-4614
鸦雀	-4615
▁可巧	-4616
▁紫鹃	-4617
▁说毕	-4618
》。”	-4619
上写着	-4620
不上来	-4621
不承望	-4622
不理他	-4623
不觉的	-4624
与凤姐	-4625
两句话	-4626
主子的	-4627
了一大	-4628
了我的	-4629
二叔叔	-4630
从哪里	-4631
从此后	-4632
从那里	-4633
代儒道	-4634
众丫鬟	-4635
你也该	-4636
你就是	-4637
便上来	-4638
便叫人	-4639
便吩咐	-4640
倒不好	-4641
再不敢	-4642
出去的	-4643
出来说	-4644
原是个	-4645
只见她	-4646
可是呢	-4647
各人的	-4648
呜呜咽	-4649
喘吁吁	-4650
四个人	-4651
回明了	-4652
回来的	-4653
在身上	-4654
在里间	-4655
大姑娘	-4656
奶奶说	-4657
她们去	-4658
妈妈们	-4659
姊妹等	-4660
姐姐的	-4661
学房里	-4662
将宝玉	-4663
小子们	-4664
就说我	-4665
差不多	-4666
得了意	-4667
慌张张	-4668
我一个	-4669
我们就	-4670
我们是	-4671
我何曾	-4672
房里来	-4673
扎挣着	-4674
有一件	-4675
李贵等	-4676
沁芳亭	-4677
没有个	-4678
漱了口	-4679
的一般	-4680
的名字	-4681
的好处	-4682
知宝玉	-4683
算不得	-4684
老爷们	-4685
自己便	-4686
至次日	-4687
茯苓霜	-4688
虽不能	-4689
言语了	-4690
说这些	-4691
请奶奶	-4692
贾蔷道	-4693
赖尚荣	-4694
赵堂官	-4695
跑进来	-4696
还有一	-4697
还记得	-4698
这一日	-4699
这个人	-4700
这块玉	-4701
那一天	-4702
那屋里	-4703
那黛玉	-4704
都不是	-4705
都笑说	-4706
青埂峰	-4707
一径去了	-4708
不知怎么	-4709
不等说完	-4710
也不过是	-4711
作了一个	-4712
你不知道	-4713
只见贾琏	-4714
史湘云道	-4715
告诉我们	-4716
呜呜咽咽	-4717
回明贾母	-4718
太虚幻境	-4719
宝钗听说	-4720
小孩子家	-4721
慌慌张张	-4722
我且问你	-4723
我知道了	-4724
既这么说	-4725
旺儿媳妇	-4726
明儿一早	-4727
是个什么	-4728
点头叹道	-4729
点头笑道	-4730
爷儿两个	-4731
王夫人处	-4732
空空道人	-4733
紫鹃姐姐	-4734
胡思乱想	-4735
见了这般	-4736
贾珍笑道	-4737
赖大家的	-4738
身上不好	-4739
这可不是	-4740
述了一遍	-4741
门上的人	-4742
闹出事来	-4743
鸳鸯笑道	-4744
▁凤姐听了	-4745
▁如今且说	-4746
众人都笑道	-4747
答应了一声	-4748
?‘	-4749
一万	-4750
一些	-4751
一壁	-4752
一来	-4753
一桌	-4754
三年	-4755
上司	-4756
上用	-4757
下子	-4758
下手	-4759
不从	-4760
不作	-4761
不宁	-4762
不明	-4763
中有	-4764
中秋	-4765
中间	-4766
之女	-4767
之症	-4768
也看	-4769
也觉	-4770
书上	-4771
买了	-4772
了嘴	-4773
事多	-4774
亲的	-4775
什子	-4776
从没	-4777
以致	-4778
众位	-4779
但见	-4780
何用	-4781
作些	-4782
作辞	-4783
使的	-4784
供给	-4785
便一	-4786
便去	-4787
便自	-4788
便骂	-4789
做主	-4790
偷的	-4791
像你	-4792
元宵	-4793
全无	-4794
八字	-4795
养着	-4796
再有	-4797
冷的	-4798
冷眼	-4799
几千	-4800
几声	-4801
出些	-4802
刁钻	-4803
别提	-4804
别致	-4805
到我	-4806
刻薄	-4807
剂药	-4808
劝她	-4809
办了	-4810
勾起	-4811
包管	-4812
千古	-4813
半刻	-4814
原说	-4815
发呆	-4816
只为	-4817
只会	-4818
可好	-4819
吃着	-4820
各有	-4821
名声	-4822
名曰	-4823
周全	-4824
呼唤	-4825
咕咚	-4826
哈哈	-4827
喜事	-4828
嗳呀	-4829
四样	-4830
圣人	-4831
圣恩	-4832
场中	-4833
城里	-4834
大厅	-4835
大笑	-4836
天生	-4837
太过	-4838
失手	-4839
头疼	-4840
女眷	-4841
她妈	-4842
她自	-4843
好端	-4844
姬妾	-4845
子都	-4846
家乡	-4847
家子	-4848
对牌	-4849
对象	-4850
小幺	-4851
尤老	-4852
就叫	-4853
就和	-4854
就跑	-4855
尽心	-4856
山水	-4857
岁的	-4858
带他	-4859
带进	-4860
引得	-4861
弟子	-4862
强盗	-4863
归房	-4864
当今	-4865
当地	-4866
微笑	-4867
忖度	-4868
忘记	-4869
快叫	-4870
快拿	-4871
总不	-4872
恒王	-4873
悲感	-4874
惊疑	-4875
懒的	-4876
我常	-4877
我罢	-4878
或可	-4879
或如	-4880
才得	-4881
打个	-4882
打他	-4883
报了	-4884
拜了	-4885
接待	-4886
掷下	-4887
支持	-4888
料定	-4889
无缘	-4890
明了	-4891
明明	-4892
昏昏	-4893
是为	-4894
是以	-4895
是最	-4896
是非	-4897
有名	-4898
有我	-4899
杯来	-4900
楼上	-4901
歇下	-4902
歇了	-4903
法师	-4904
洗了	-4905
活的	-4906
浊物	-4907
清香	-4908
火上	-4909
火盆	-4910
焚香	-4911
照料	-4912
王府	-4913
甚好	-4914
用了	-4915
由着	-4916
疯疯	-4917
疼他	-4918
疼痛	-4919
痴心	-4920
的头	-4921
的要	-4922
盘子	-4923
盥漱	-4924
相思	-4925
看家	-4926
眼见	-4927
着门	-4928
瞧她	-4929
碰在	-4930
碰头	-4931
神情	-4932
禀道	-4933
种子	-4934
穿了	-4935
立意	-4936
竟比	-4937
等候	-4938
等类	-4939
管着	-4940
红尘	-4941
结果	-4942
老亲	-4943
耳朵	-4944
背着	-4945
脉息	-4946
脖子	-4947
脸来	-4948
脸的	-4949
自寻	-4950
舒服	-4951
若何	-4952
茄子	-4953
茶饭	-4954
薄命	-4955
虚名	-4956
虽未	-4957
行令	-4958
行动	-4959
西平	-4960
要强	-4961
要茶	-4962
要见	-4963
见见	-4964
计议	-4965
让了	-4966
讪讪	-4967
设下	-4968
话了	-4969
说个	-4970
说去	-4971
诸公	-4972
谁是	-4973
调养	-4974
贺喜	-4975
走入	-4976
走近	-4977
赶上	-4978
轻易	-4979
轿子	-4980
还叫	-4981
还在	-4982
这时	-4983
这门	-4984
进房	-4985
迷了	-4986
都忙	-4987
都来	-4988
酒后	-4989
锄药	-4990
长得	-4991
问候	-4992
阎王	-4993
限韵	-4994
院外	-4995
随了	-4996
随意	-4997
随手	-4998
隐隐	-4999
难受	-5000
雄奴	-5001
雨水	-5002
青缎	-5003
面如	-5004
顿饭	-5005
风光	-5006
风吹	-5007
饿了	-5008
骂我	-5009
骰子	-5010
鹦哥	-5011
黄昏	-5012
’?”	-5013
▁李纨	-5014
▁第七	-5015
▁第九	-5016
▁第八	-5017
▁薛蟠	-5018
一干人	-5019
一见了	-5020
上去了	-5021
下去了	-5022
不一时	-5023
不了的	-5024
不在意	-5025
不是了	-5026
不理会	-5027
与众人	-5028
与宝钗	-5029
世人都	-5030
东西的	-5031
也不及	-5032
也不少	-5033
也不算	-5034
也不管	-5035
也不觉	-5036
也可以	-5037
也有说	-5038
也算是	-5039
了几个	-5040
些东西	-5041
从后门	-5042
他出来	-5043
众人忙	-5044
你回去	-5045
你说的	-5046
你还不	-5047
倒像是	-5048
做生日	-5049
包勇道	-5050
又不能	-5051
又是个	-5052
取笑儿	-5053
叫平儿	-5054
史姑娘	-5055
吩咐他	-5056
命人将	-5057
命宝玉	-5058
哪里去	-5059
四妹妹	-5060
回去的	-5061
回贾母	-5062
在跟前	-5063
地方儿	-5064
女先儿	-5065
她心里	-5066
好兄弟	-5067
好日子	-5068
好的了	-5069
宝妹妹	-5070
宝玉却	-5071
宝玉只	-5072
宝玉正	-5073
将起来	-5074
小姐的	-5075
就够了	-5076
就是她	-5077
就有了	-5078
就这样	-5079
岂有不	-5080
已有了	-5081
巴巴的	-5082
带了来	-5083
平姐姐	-5084
开了门	-5085
心里却	-5086
忙命人	-5087
忙问道	-5088
想一想	-5089
想必是	-5090
我原是	-5091
我哥哥	-5092
我因为	-5093
我看着	-5094
打死了	-5095
断不肯	-5096
方回来	-5097
是不能	-5098
是有的	-5099
有一番	-5100
有这些	-5101
林如海	-5102
林姐姐	-5103
林家的	-5104
没良心	-5105
洗了手	-5106
猩猩毡	-5107
王大夫	-5108
用不着	-5109
的亲戚	-5110
的原故	-5111
的银子	-5112
瞧瞧去	-5113
知贾母	-5114
笑回道	-5115
笑着道	-5116
笑话儿	-5117
第一个	-5118
给她们	-5119
给贾母	-5120
翻来覆	-5121
老世翁	-5122
老奶奶	-5123
若只管	-5124
蓉哥儿	-5125
薛大爷	-5126
袭人也	-5127
见一个	-5128
许多人	-5129
说的话	-5130
贾府中	-5131
赖嬷嬷	-5132
走上来	-5133
走出来	-5134
赶上来	-5135
越想越	-5136
辜负了	-5137
过贾母	-5138
还有谁	-5139
这东西	-5140
这两件	-5141
这个病	-5142
这么样	-5143
这又是	-5144
连我也	-5145
送过去	-5146
邢姑娘	-5147
那个人	-5148
那眼泪	-5149
那道人	-5150
都没了	-5151
问起来	-5152
一面笑道	-5153
不过是个	-5154
与王夫人	-5155
两个丫头	-5156
两个姑子	-5157
了一口气	-5158
你也不用	-5159
凤姐听说	-5160
只得勉强	-5161
可怜见的	-5162
吃了晚饭	-5163
咱们家里	-5164
咱们这样	-5165
咱们这里	-5166
在园子里	-5167
大夫来了	-5168
大笑起来	-5169
姑娘们的	-5170
宝玉也不	-5171
宝玉心中	-5172
平儿听了	-5173
我在这里	-5174
我这会子	-5175
有些意思	-5176
王夫人忙	-5177
看了一看	-5178
笑个不住	-5179
紫鹃听了	-5180
说了一回	-5181
贾母便说	-5182
贾母便问	-5183
贾蓉之妻	-5184
走到跟前	-5185
赵姨娘道	-5186
这个地方	-5187
这些日子	-5188
那丫头道	-5189
那边去了	-5190
都在这里	-5191
陪笑说道	-5192
▁周瑞家的	-5193
也只得罢了	-5194
也没有什么	-5195
凤姐儿说道	-5196
老太太的事	-5197
鬼鬼祟祟的	-5198
一分	-5199
一切	-5200
一到	-5201
一副	-5202
一名	-5203
一向	-5204
一望	-5205
一段	-5206
一生	-5207
一盆	-5208
上月	-5209
上眼	-5210
上香	-5211
不干	-5212
不待	-5213
不疼	-5214
不肖	-5215
与了	-5216
且看	-5217
世家	-5218
东南	-5219
丧事	-5220
个头	-5221
为他	-5222
之句	-5223
之命	-5224
之所	-5225
之气	-5226
也倒	-5227
也因	-5228
二哥	-5229
二钱	-5230
互相	-5231
五个	-5232
五彩	-5233
五色	-5234
亦如	-5235
亦曾	-5236
亲眼	-5237
人报	-5238
他作	-5239
他倒	-5240
他这	-5241
仙子	-5242
们的	-5243
任凭	-5244
伏在	-5245
会芳	-5246
传出	-5247
伺侯	-5248
体谅	-5249
何方	-5250
你和	-5251
你太	-5252
你把	-5253
你没	-5254
使个	-5255
使他	-5256
供奉	-5257
依允	-5258
依然	-5259
便从	-5260
便接	-5261
便没	-5262
便请	-5263
俗人	-5264
保重	-5265
倒都	-5266
假的	-5267
偏心	-5268
做官	-5269
做梦	-5270
停灵	-5271
儿都	-5272
先就	-5273
先把	-5274
入朝	-5275
公婆	-5276
再走	-5277
冒失	-5278
写的	-5279
冷淡	-5280
冷清	-5281
凑了	-5282
几样	-5283
凭你	-5284
出的	-5285
则声	-5286
初二	-5287
别个	-5288
别了	-5289
别叫	-5290
前去	-5291
剩下	-5292
务必	-5293
勾引	-5294
十年	-5295
十月	-5296
千儿	-5297
千秋	-5298
半月	-5299
历来	-5300
厢房	-5301
又像	-5302
又到	-5303
又去	-5304
又小	-5305
又极	-5306
又笑	-5307
又轻	-5308
反了	-5309
反说	-5310
另有	-5311
叩头	-5312
只以	-5313
只命	-5314
只道	-5315
可就	-5316
吆喝	-5317
合了	-5318
合眼	-5319
后话	-5320
向他	-5321
向外	-5322
含羞	-5323
命里	-5324
四书	-5325
四句	-5326
回京	-5327
因何	-5328
圣贤	-5329
在下	-5330
在我	-5331
地的	-5332
坐的	-5333
墙上	-5334
壁上	-5335
多半	-5336
大书	-5337
失言	-5338
奚落	-5339
好说	-5340
妇人	-5341
妖怪	-5342
妨碍	-5343
妻女	-5344
嫌疑	-5345
子们	-5346
字是	-5347
学着	-5348
安插	-5349
安顿	-5350
家塾	-5351
家宴	-5352
家来	-5353
家计	-5354
宽衣	-5355
对着	-5356
小旦	-5357
小童	-5358
就去	-5359
就往	-5360
左边	-5361
差人	-5362
已去	-5363
带上	-5364
常情	-5365
庵的	-5366
弄鬼	-5367
张材	-5368
待他	-5369
得人	-5370
得他	-5371
得便	-5372
得过	-5373
心坎	-5374
心性	-5375
快把	-5376
念念	-5377
怀中	-5378
性格	-5379
总理	-5380
惦记	-5381
愚人	-5382
懒怠	-5383
我心	-5384
我把	-5385
我给	-5386
我送	-5387
戒指	-5388
手炉	-5389
打你	-5390
打几	-5391
打嘴	-5392
打趣	-5393
托人	-5394
扬州	-5395
找着	-5396
抄了	-5397
抄检	-5398
把手	-5399
折了	-5400
拿住	-5401
挂着	-5402
指头	-5403
指望	-5404
指示	-5405
挨次	-5406
捧过	-5407
接连	-5408
推她	-5409
揭开	-5410
搜检	-5411
改日	-5412
救我	-5413
整理	-5414
断乎	-5415
斯文	-5416
方向	-5417
方好	-5418
旧诗	-5419
早来	-5420
早被	-5421
明月	-5422
春天	-5423
是真	-5424
晦气	-5425
暖和	-5426
更兼	-5427
更又	-5428
更妙	-5429
有限	-5430
望外	-5431
朝廷	-5432
未完	-5433
来寻	-5434
板子	-5435
柳家	-5436
根子	-5437
桌椅	-5438
检点	-5439
椅子	-5440
楼梦	-5441
次后	-5442
正房	-5443
正门	-5444
此人	-5445
此信	-5446
毛病	-5447
水仙	-5448
池中	-5449
满心	-5450
灰鼠	-5451
点灯	-5452
照旧	-5453
照样	-5454
照顾	-5455
爽利	-5456
物儿	-5457
狐疑	-5458
狠狠	-5459
独是	-5460
猜疑	-5461
玉的	-5462
王公	-5463
玷辱	-5464
珍儿	-5465
理他	-5466
琪官	-5467
瓜果	-5468
用功	-5469
略有	-5470
略觉	-5471
疼我	-5472
病中	-5473
症候	-5474
相对	-5475
省了	-5476
着落	-5477
瞧见	-5478
知的	-5479
石青	-5480
礼物	-5481
神将	-5482
祭祀	-5483
私情	-5484
穿上	-5485
穿衣	-5486
窗子	-5487
窗户	-5488
第四	-5489
红梅	-5490
细述	-5491
绝了	-5492
罚他	-5493
羡慕	-5494
能干	-5495
脚踏	-5496
自来	-5497
花神	-5498
花草	-5499
若再	-5500
茜雪	-5501
茶杯	-5502
草木	-5503
菜蔬	-5504
菱洲	-5505
虽无	-5506
蟠儿	-5507
行来	-5508
街坊	-5509
袭了	-5510
西洋	-5511
要把	-5512
要钱	-5513
见那	-5514
言谈	-5515
计较	-5516
讨情	-5517
诊脉	-5518
该班	-5519
说要	-5520
调停	-5521
谣言	-5522
贤良	-5523
费用	-5524
赎罪	-5525
起先	-5526
起居	-5527
越性	-5528
身材	-5529
还他	-5530
还怕	-5531
还想	-5532
还求	-5533
还该	-5534
这不	-5535
这小	-5536
这算	-5537
连声	-5538
递了	-5539
那天	-5540
都往	-5541
金凤	-5542
钱去	-5543
钱粮	-5544
镯子	-5545
门户	-5546
闲言	-5547
难的	-5548
项上	-5549
项圈	-5550
顺手	-5551
领着	-5552
风俗	-5553
骂着	-5554
高明	-5555
,--	-5556
’!”	-5557
▁尤氏	-5558
▁晴雯	-5559
▁正在	-5560
一味的	-5561
一辈的	-5562
不依的	-5563
不去了	-5564
不去的	-5565
不好的	-5566
不成了	-5567
不能了	-5568
不觉又	-5569
个主意	-5570
个信儿	-5571
丫头的	-5572
也十分	-5573
也有了	-5574
也须得	-5575
了一天	-5576
了她来	-5577
二嫂子	-5578
他也不	-5579
他是个	-5580
他自己	-5581
低着头	-5582
你们了	-5583
你们别	-5584
你倒是	-5585
你去罢	-5586
你回来	-5587
你好生	-5588
你妹妹	-5589
你娘的	-5590
你素日	-5591
你难道	-5592
便自己	-5593
先笑道	-5594
兰哥儿	-5595
冯大爷	-5596
几岁了	-5597
出了门	-5598
出这个	-5599
出这些	-5600
到园里	-5601
动了气	-5602
劳什子	-5603
千万别	-5604
又听得	-5605
又想着	-5606
又有了	-5607
口里说	-5608
只得将	-5609
只得忍	-5610
只是这	-5611
吃多了	-5612
吃完了	-5613
吃过饭	-5614
各处去	-5615
各自的	-5616
和她们	-5617
和鸳鸯	-5618
哪里就	-5619
哪里肯	-5620
四丫头	-5621
因联道	-5622
因贾母	-5623
在园内	-5624
在窗外	-5625
外祖母	-5626
大姐姐	-5627
大惊小	-5628
太太也	-5629
头一个	-5630
她素日	-5631
媳妇儿	-5632
子兴道	-5633
宝玉去	-5634
宝玉是	-5635
宝钗也	-5636
小老婆	-5637
就去了	-5638
就来了	-5639
屋子里	-5640
平安州	-5641
府里的	-5642
怀古其	-5643
我不信	-5644
我不敢	-5645
我也要	-5646
我只说	-5647
我妈妈	-5648
我自然	-5649
我还要	-5650
手里的	-5651
才好呢	-5652
才说道	-5653
打发个	-5654
把我的	-5655
抿着嘴	-5656
接过来	-5657
推宝玉	-5658
提醒了	-5659
搁得住	-5660
断不可	-5661
断不能	-5662
方知是	-5663
族中人	-5664
智能儿	-5665
有一位	-5666
服侍的	-5667
林四娘	-5668
正想着	-5669
正月里	-5670
步田地	-5671
求太太	-5672
没主意	-5673
没什么	-5674
没好气	-5675
没法儿	-5676
甄士隐	-5677
甚至于	-5678
画着一	-5679
白白的	-5680
的女人	-5681
的家人	-5682
的心事	-5683
看屋子	-5684
睡去了	-5685
禁不起	-5686
笑嘻嘻	-5687
等我们	-5688
答应道	-5689
给我的	-5690
老爷说	-5691
耽误了	-5692
自那日	-5693
荣府中	-5694
薛蝌道	-5695
袭人便	-5696
见过的	-5697
讪讪的	-5698
说一句	-5699
说笑笑	-5700
谁家的	-5701
谁还敢	-5702
谢不尽	-5703
贾母又	-5704
贾母的	-5705
贾琏便	-5706
贾瑞道	-5707
贾蓉等	-5708
贾赦道	-5709
迎出来	-5710
迎春道	-5711
这些个	-5712
这里有	-5713
送了来	-5714
那两个	-5715
那么着	-5716
那贾芸	-5717
锦衣府	-5718
项银子	-5719
▁第二十	-5720
一个丫头	-5721
不敢违拗	-5722
不是什么	-5723
不是我说	-5724
不用说了	-5725
丢了东西	-5726
两银子来	-5727
也不中用	-5728
什么意思	-5729
从今以后	-5730
低头不语	-5731
你为什么	-5732
你听见了	-5733
做什么呢	-5734
刘姥姥便	-5735
原来如此	-5736
只见几个	-5737
吃了半碗	-5738
告诉了他	-5739
和他说话	-5740
和王夫人	-5741
喝了一口	-5742
回了贾母	-5743
回头看时	-5744
回过头来	-5745
如今宝玉	-5746
孙子媳妇	-5747
宝玉一面	-5748
宝玉又道	-5749
宝玉来了	-5750
宝琴笑道	-5751
家的人来	-5752
小孩子们	-5753
就是我的	-5754
就是这样	-5755
想到这里	-5756
打开看时	-5757
无精打彩	-5758
是怎么样	-5759
有造化的	-5760
看见宝玉	-5761
立起身来	-5762
见过贾母	-5763
说说话儿	-5764
贾母因说	-5765
还是这样	-5766
这么一个	-5767
进来回道	-5768
那小丫头	-5769
那里的话	-5770
都笑起来	-5771
▁且说宝玉	-5772
▁众人听了	-5773
▁却说宝玉	-5774
一个小丫头	-5775
两个小丫头	-5776
倒唬了一跳	-5777
凤姐儿听了	-5778
还不知道呢	-5779
林之孝家的道	-5780
只见一个小丫头	-5781
’!	-5782
、”	-5783
一份	-5784
一刻	-5785
一发	-5786
一封	-5787
一照	-5788
一种	-5789
一跳	-5790
一身	-5791
万人	-5792
三则	-5793
三岁	-5794
上年	-5795
上轿	-5796
上马	-5797
下次	-5798
不以	-5799
不准	-5800
不喜	-5801
不对	-5802
不应	-5803
不消	-5804
不至	-5805
不进	-5806
丢在	-5807
两出	-5808
个大	-5809
为她	-5810
为妻	-5811
举起	-5812
之恩	-5813
之说	-5814
之辈	-5815
乌进	-5816
也把	-5817
也甚	-5818
也自	-5819
乱说	-5820
了大	-5821
了灯	-5822
事呢	-5823
五日	-5824
五间	-5825
亦且	-5826
亦非	-5827
亲热	-5828
人有	-5829
他些	-5830
他人	-5831
以备	-5832
以至	-5833
伙儿	-5834
住儿	-5835
佛手	-5836
你叫	-5837
你怕	-5838
你都	-5839
佳蕙	-5840
侍女	-5841
侯门	-5842
便可	-5843
便拿	-5844
便来	-5845
便罢	-5846
俱全	-5847
倒下	-5848
倒先	-5849
做诗	-5850
儿们	-5851
先将	-5852
兰儿	-5853
共有	-5854
养活	-5855
养病	-5856
再瞧	-5857
几家	-5858
几杯	-5859
凡事	-5860
分上	-5861
刚刚	-5862
别无	-5863
到手	-5864
到这	-5865
劝说	-5866
功德	-5867
十数	-5868
千里	-5869
压倒	-5870
厌烦	-5871
原籍	-5872
又叹	-5873
又拿	-5874
又用	-5875
又自	-5876
又该	-5877
反觉	-5878
发烧	-5879
发送	-5880
受礼	-5881
口袋	-5882
口角	-5883
口齿	-5884
只从	-5885
只可	-5886
只拣	-5887
可卿	-5888
可恶	-5889
可爱	-5890
吃亏	-5891
各位	-5892
同她	-5893
名叫	-5894
后儿	-5895
吓的	-5896
吟诗	-5897
含悲	-5898
呆了	-5899
命了	-5900
和平	-5901
哄你	-5902
哼哼	-5903
哽咽	-5904
回南	-5905
在上	-5906
在人	-5907
在你	-5908
在先	-5909
堂客	-5910
声道	-5911
处治	-5912
夏家	-5913
外藩	-5914
多多	-5915
夜深	-5916
大叫	-5917
大开	-5918
大胆	-5919
大轿	-5920
大雪	-5921
太阳	-5922
头去	-5923
女道	-5924
她家	-5925
好意	-5926
妖精	-5927
妻子	-5928
姑苏	-5929
嫦娥	-5930
孔子	-5931
孔雀	-5932
学中	-5933
学了	-5934
守己	-5935
完毕	-5936
定的	-5937
定礼	-5938
家业	-5939
寂静	-5940
寡妇	-5941
寻常	-5942
寻觅	-5943
将他	-5944
将这	-5945
尊贵	-5946
小名	-5947
小巧	-5948
小轿	-5949
少年	-5950
尘缘	-5951
尚可	-5952
就可	-5953
尼姑	-5954
山上	-5955
山之	-5956
州县	-5957
工程	-5958
帕子	-5959
干的	-5960
庄子	-5961
应酬	-5962
府中	-5963
开交	-5964
开导	-5965
弄的	-5966
引着	-5967
待人	-5968
待她	-5969
心地	-5970
心腹	-5971
快些	-5972
快去	-5973
性急	-5974
悄问	-5975
情性	-5976
惊醒	-5977
想念	-5978
感冒	-5979
慈悲	-5980
我找	-5981
我早	-5982
所为	-5983
所致	-5984
才有	-5985
打紧	-5986
扯谎	-5987
找寻	-5988
找我	-5989
披上	-5990
披着	-5991
拆开	-5992
拉他	-5993
择日	-5994
指甲	-5995
按数	-5996
挽回	-5997
捧了	-5998
掀帘	-5999
接去	-6000
搀扶	-6001
摆布	-6002
撞见	-6003
擅入	-6004
文武	-6005
斟了	-6006
断断	-6007
方法	-6008
无论	-6009
无限	-6010
无非	-6011
日兴	-6012
时时	-6013
景致	-6014
曲子	-6015
最喜	-6016
月例	-6017
有这	-6018
望候	-6019
望着	-6020
未敢	-6021
杀了	-6022
来升	-6023
松花	-6024
架上	-6025
某人	-6026
查抄	-6027
欲要	-6028
款待	-6029
正室	-6030
此物	-6031
此皆	-6032
此系	-6033
此花	-6034
死是	-6035
每月	-6036
水来	-6037
求了	-6038
求亲	-6039
洗澡	-6040
深为	-6041
混话	-6042
漱口	-6043
灯下	-6044
点了	-6045
烦她	-6046
爱听	-6047
爷的	-6048
片时	-6049
牌坊	-6050
牛黄	-6051
特特	-6052
犹可	-6053
率领	-6054
玉钏	-6055
王法	-6056
现是	-6057
现有	-6058
理论	-6059
生来	-6060
用度	-6061
用心	-6062
用过	-6063
由他	-6064
番役	-6065
疯话	-6066
病得	-6067
的干	-6068
的理	-6069
的还	-6070
的香	-6071
皆由	-6072
盒内	-6073
直流	-6074
直至	-6075
看完	-6076
看起	-6077
真人	-6078
着个	-6079
短了	-6080
碌碌	-6081
礼部	-6082
福寿	-6083
秋菱	-6084
立在	-6085
立身	-6086
竟把	-6087
竟自	-6088
竹子	-6089
笔来	-6090
算帐	-6091
算是	-6092
管了	-6093
管理	-6094
箱柜	-6095
簪子	-6096
糊涂	-6097
繁华	-6098
红毡	-6099
红绫	-6100
纱窗	-6101
纳罕	-6102
经历	-6103
老伯	-6104
而生	-6105
耗子	-6106
脚下	-6107
膏药	-6108
自行	-6109
舅爷	-6110
色道	-6111
芍药	-6112
花上	-6113
花开	-6114
花柳	-6115
若问	-6116
苦了	-6117
茫茫	-6118
莫非	-6119
葬花	-6120
虽多	-6121
行走	-6122
袖子	-6123
被窝	-6124
西厢	-6125
要往	-6126
观音	-6127
解说	-6128
议定	-6129
许了	-6130
诊了	-6131
话去	-6132
话未	-6133
说不	-6134
说句	-6135
说情	-6136
说有	-6137
请人	-6138
请去	-6139
谈论	-6140
贾宅	-6141
赏的	-6142
走出	-6143
走时	-6144
跟我	-6145
辆车	-6146
过这	-6147
这三	-6148
这便	-6149
这却	-6150
送过	-6151
道喜	-6152
部里	-6153
酒底	-6154
金的	-6155
铺陈	-6156
长大	-6157
门来	-6158
问时	-6159
闲事	-6160
静养	-6161
顶头	-6162
领略	-6163
飞红	-6164
饥荒	-6165
饮酒	-6166
骨牌	-6167
高声	-6168
――”	-6169
▁后面	-6170
▁大家	-6171
▁女儿	-6172
▁宝琴	-6173
▁贾芸	-6174
▁那日	-6175
一叠声	-6176
一席话	-6177
一溜烟	-6178
一点子	-6179
一般的	-6180
一面就	-6181
下来的	-6182
不吃饭	-6183
不好看	-6184
不理我	-6185
不起来	-6186
与他们	-6187
与她们	-6188
与贾政	-6189
个不是	-6190
乌进孝	-6191
也不容	-6192
也大了	-6193
也忘了	-6194
也无心	-6195
了一位	-6196
了半晌	-6197
二人便	-6198
二人方	-6199
二人皆	-6200
云姑娘	-6201
五十两	-6202
五百两	-6203
人一般	-6204
从没有	-6205
他们去	-6206
他去了	-6207
众丫头	-6208
何三道	-6209
作伴儿	-6210
你一个	-6211
你不知	-6212
你也是	-6213
你媳妇	-6214
你果然	-6215
你老子	-6216
你这么	-6217
侄女儿	-6218
依你说	-6219
保得住	-6220
倒没有	-6221
傻大姐	-6222
儿似的	-6223
兴儿道	-6224
再没有	-6225
写的是	-6226
凤姐见	-6227
出许多	-6228
十二回	-6229
十二钗	-6230
十来个	-6231
却不知	-6232
又好笑	-6233
取了一	-6234
受委屈	-6235
只见他	-6236
叫二爷	-6237
叫你来	-6238
叫鸳鸯	-6239
可使得	-6240
周姨娘	-6241
和他们	-6242
和李纨	-6243
和香菱	-6244
嘴巴子	-6245
在一个	-6246
在上头	-6247
在后面	-6248
在外面	-6249
在家中	-6250
在那边	-6251
外书房	-6252
大家的	-6253
央告道	-6254
奶奶要	-6255
她去了	-6256
她怎么	-6257
她这样	-6258
如今也	-6259
如今的	-6260
嫂子的	-6261
定主意	-6262
宝玉先	-6263
宝玉听	-6264
宝玉才	-6265
家的事	-6266
将自己	-6267
就有人	-6268
就说是	-6269
就过来	-6270
屋里去	-6271
岂不两	-6272
带了去	-6273
彩屏等	-6274
忙出来	-6275
忙进来	-6276
快出去	-6277
怎么办	-6278
恐贾母	-6279
惯了的	-6280
懒懒的	-6281
我不过	-6282
我前儿	-6283
我只当	-6284
我是个	-6285
我有一	-6286
我死了	-6287
我自有	-6288
我说了	-6289
把我们	-6290
把方才	-6291
拉扯扯	-6292
拿出去	-6293
换衣服	-6294
搁不住	-6295
搭讪着	-6296
故意的	-6297
方说道	-6298
是正经	-6299
晚饭后	-6300
更好了	-6301
替你们	-6302
服侍你	-6303
极好的	-6304
歇歇罢	-6305
没有呢	-6306
然后又	-6307
特特的	-6308
犹未了	-6309
甄应嘉	-6310
的去处	-6311
看不见	-6312
真真是	-6313
眼睛里	-6314
着些儿	-6315
程日兴	-6316
第一件	-6317
第二天	-6318
第二日	-6319
等着呢	-6320
管不得	-6321
红楼梦	-6322
自然要	-6323
至贾母	-6324
芸二爷	-6325
解闷儿	-6326
警幻道	-6327
说不出	-6328
说得好	-6329
说这话	-6330
谁知她	-6331
贾政又	-6332
贾母命	-6333
贾琏又	-6334
还不够	-6335
还可以	-6336
还有人	-6337
还有呢	-6338
这一番	-6339
这婆子	-6340
这媳妇	-6341
这早晚	-6342
这是你	-6343
这样人	-6344
进来罢	-6345
连我们	-6346
那一日	-6347
那时候	-6348
都不敢	-6349
问是谁	-6350
馒头庵	-6351
▁第三十	-6352
▁第五十	-6353
▁第四十	-6354
一闻此言	-6355
上下人等	-6356
上面写着	-6357
不在这里	-6358
不必细说	-6359
不敢言语	-6360
不知道了	-6361
也不敢说	-6362
也不理会	-6363
也是这样	-6364
了一点儿	-6365
了这半日	-6366
什么似的	-6367
从此以后	-6368
伤心起来	-6369
伤起心来	-6370
你们奶奶	-6371
你们姑娘	-6372
你怎么样	-6373
到了这里	-6374
只听外面	-6375
只见秋纹	-6376
听了笑道	-6377
听见外头	-6378
商议定了	-6379
喜之不尽	-6380
喝了两口	-6381
回二奶奶	-6382
回到房中	-6383
外甥女儿	-6384
太太屋里	-6385
如此这般	-6386
姐姐妹妹	-6387
安分守己	-6388
宝玉此时	-6389
宝玉的事	-6390
岂不省事	-6391
巧姐儿道	-6392
张材家的	-6393
得罪了她	-6394
忽见宝玉	-6395
怎么不见	-6396
我也知道	-6397
我们二爷	-6398
我的东西	-6399
打起帘子	-6400
放在心上	-6401
放在眼里	-6402
旺儿家的	-6403
昨儿晚上	-6404
是怎么了	-6405
有个原故	-6406
李十儿道	-6407
歪在床上	-6408
潇湘妃子	-6409
王夫人见	-6410
珍大嫂子	-6411
痛哭起来	-6412
看了一回	-6413
答应去了	-6414
翻来覆去	-6415
老嬷嬷们	-6416
芳官听了	-6417
蓉大奶奶	-6418
袭人见他	-6419
要紧的事	-6420
贾母又道	-6421
贾母那边	-6422
贾琏进来	-6423
走了出来	-6424
走了进来	-6425
躺在床上	-6426
过来请安	-6427
这一句话	-6428
这个自然	-6429
这件东西	-6430
递与宝玉	-6431
那边太太	-6432
都在那里	-6433
▁这里宝玉	-6434
▁黛玉笑道	-6435
作了一个揖	-6436
又说了一回	-6437
悄悄的笑道	-6438
是什么意思	-6439
有年纪的人	-6440
答应着出来	-6441
说了几句话	-6442
跟着老太太	-6443
身上不大好	-6444
这样一个人	-6445
那小丫头子	-6446
’?	-6447
▁过	-6448
▁金	-6449
一十	-6450
一听	-6451
一座	-6452
一无	-6453
一架	-6454
一理	-6455
一红	-6456
一缕	-6457
三春	-6458
三首	-6459
上屋	-6460
上床	-6461
下一	-6462
下里	-6463
不当	-6464
不快	-6465
不相	-6466
不看	-6467
不瞒	-6468
不问	-6469
不雅	-6470
专管	-6471
且请	-6472
世事	-6473
世仁	-6474
丢的	-6475
两碗	-6476
两面	-6477
严紧	-6478
为你	-6479
为此	-6480
为首	-6481
举人	-6482
之先	-6483
之流	-6484
之病	-6485
之计	-6486
九个	-6487
九日	-6488
也从	-6489
也去	-6490
也少	-6491
也想	-6492
也知	-6493
乳母	-6494
了打	-6495
事儿	-6496
二刻	-6497
于心	-6498
亏空	-6499
云雨	-6500
五千	-6501
些话	-6502
亦有	-6503
亲朋	-6504
人丁	-6505
人力	-6506
人少	-6507
人生	-6508
今早	-6509
从古	-6510
从小	-6511
他了	-6512
会了	-6513
传了	-6514
传人	-6515
何意	-6516
作两	-6517
作媒	-6518
作怪	-6519
作法	-6520
你反	-6521
你娘	-6522
你替	-6523
你跟	-6524
使我	-6525
侍儿	-6526
便掷	-6527
信息	-6528
信的	-6529
倒在	-6530
值得	-6531
偏是	-6532
做去	-6533
做过	-6534
元帝	-6535
先从	-6536
光了	-6537
兢兢	-6538
入宫	-6539
入席	-6540
八十	-6541
其情	-6542
其词	-6543
其间	-6544
内廷	-6545
内的	-6546
再往	-6547
再想	-6548
再提	-6549
再无	-6550
再见	-6551
再迟	-6552
冒撞	-6553
净了	-6554
减了	-6555
几分	-6556
出力	-6557
分说	-6558
划拳	-6559
别后	-6560
到园	-6561
到此	-6562
前因	-6563
前往	-6564
前想	-6565
功勋	-6566
劳动	-6567
劳神	-6568
半年	-6569
半新	-6570
卧室	-6571
去叫	-6572
去见	-6573
参禅	-6574
又似	-6575
又作	-6576
又值	-6577
又多	-6578
又生	-6579
又跑	-6580
又闹	-6581
发放	-6582
发热	-6583
发狠	-6584
发的	-6585
古来	-6586
只别	-6587
只和	-6588
只想	-6589
只许	-6590
只闻	-6591
叫醒	-6592
叮咛	-6593
台矶	-6594
右扁	-6595
吃喝	-6596
吃完	-6597
各家	-6598
吊子	-6599
同他	-6600
向她	-6601
吞声	-6602
含糊	-6603
听毕	-6604
味儿	-6605
呵呵	-6606
和那	-6607
咬定	-6608
哄他	-6609
哄得	-6610
哝哝	-6611
哪一	-6612
唐突	-6613
唱道	-6614
喊道	-6615
喜出	-6616
喜鸾	-6617
器皿	-6618
四回	-6619
四顾	-6620
回禀	-6621
因在	-6622
因思	-6623
团团	-6624
在席	-6625
在房	-6626
坐更	-6627
坐罢	-6628
坐褥	-6629
堂上	-6630
堂屋	-6631
墨雨	-6632
声名	-6633
处去	-6634
备了	-6635
多吃	-6636
大怒	-6637
天理	-6638
太君	-6639
失玉	-6640
头绪	-6641
套间	-6642
奶母	-6643
她呢	-6644
她才	-6645
她虽	-6646
好几	-6647
好心	-6648
如是	-6649
如雨	-6650
妙极	-6651
妥贴	-6652
妩媚	-6653
姓林	-6654
娇养	-6655
子要	-6656
官事	-6657
定神	-6658
实的	-6659
审问	-6660
害了	-6661
家私	-6662
家道	-6663
寒温	-6664
对了	-6665
对子	-6666
对月	-6667
寻思	-6668
寿星	-6669
将她	-6670
尊府	-6671
小了	-6672
小弟	-6673
小爷	-6674
小菜	-6675
小螺	-6676
就依	-6677
就的	-6678
尸首	-6679
岁了	-6680
岂敢	-6681
巍巍	-6682
差了	-6683
差使	-6684
帘外	-6685
带回	-6686
平生	-6687
年月	-6688
幸得	-6689
应承	-6690
底里	-6691
庙中	-6692
度其	-6693
度日	-6694
弄个	-6695
张德	-6696
弹琴	-6697
强占	-6698
当槽	-6699
得早	-6700
心病	-6701
忍着	-6702
忙向	-6703
快走	-6704
忽有	-6705
怎得	-6706
怕的	-6707
怨我	-6708
恭敬	-6709
恰是	-6710
恳切	-6711
悬心	-6712
悲喜	-6713
悲痛	-6714
情理	-6715
惭愧	-6716
想去	-6717
想的	-6718
戏文	-6719
我今	-6720
我作	-6721
我当	-6722
我瞧	-6723
戴权	-6724
手下	-6725
手足	-6726
才去	-6727
才能	-6728
打坐	-6729
托了	-6730
抄录	-6731
把持	-6732
把眼	-6733
拜谢	-6734
捉弄	-6735
换的	-6736
掀起	-6737
掏出	-6738
探头	-6739
掩饰	-6740
搂着	-6741
搜寻	-6742
搭着	-6743
撒野	-6744
撵了	-6745
撵出	-6746
改的	-6747
教我	-6748
散出	-6749
散后	-6750
散的	-6751
斗牌	-6752
新巧	-6753
新房	-6754
新近	-6755
方妙	-6756
方能	-6757
施礼	-6758
无味	-6759
无数	-6760
无益	-6761
无能	-6762
无赖	-6763
既然	-6764
日月	-6765
旧日	-6766
早晨	-6767
昭儿	-6768
是日	-6769
显得	-6770
景儿	-6771
最疼	-6772
月色	-6773
有云	-6774
有谁	-6775
本书	-6776
杀人	-6777
李家	-6778
杜撰	-6779
来人	-6780
来拿	-6781
来旺	-6782
枕头	-6783
架子	-6784
柔情	-6785
柜子	-6786
树木	-6787
栗子	-6788
梳头	-6789
椅上	-6790
欲待	-6791
止了	-6792
正眼	-6793
气来	-6794
水的	-6795
汤来	-6796
沙弥	-6797
没处	-6798
沿上	-6799
泣道	-6800
注云	-6801
洒泪	-6802
清早	-6803
满了	-6804
演习	-6805
灵验	-6806
炮仗	-6807
烦闷	-6808
烧纸	-6809
烧香	-6810
照脸	-6811
爱惜	-6812
爽快	-6813
狐媚	-6814
猛然	-6815
王家	-6816
珠子	-6817
甚么	-6818
用话	-6819
甬路	-6820
画的	-6821
畜生	-6822
疗治	-6823
疼爱	-6824
病人	-6825
病势	-6826
痴痴	-6827
登记	-6828
白石	-6829
白绫	-6830
百日	-6831
皂白	-6832
的书	-6833
的住	-6834
的门	-6835
皆在	-6836
皆知	-6837
省俭	-6838
看到	-6839
看道	-6840
真情	-6841
眼儿	-6842
瞧去	-6843
神瑛	-6844
禁得	-6845
秋爽	-6846
种树	-6847
称赏	-6848
穿的	-6849
窝儿	-6850
竟无	-6851
笑容	-6852
筵席	-6853
筹画	-6854
管你	-6855
素喜	-6856
紧紧	-6857
红颜	-6858
纵有	-6859
纸上	-6860
细心	-6861
经济	-6862
结了	-6863
结子	-6864
绿玉	-6865
缓缓	-6866
者也	-6867
脱身	-6868
膝下	-6869
自作	-6870
自知	-6871
芦雪	-6872
花木	-6873
荒唐	-6874
药方	-6875
落后	-6876
落的	-6877
蕙香	-6878
藏着	-6879
藏躲	-6880
虽则	-6881
蚊子	-6882
行为	-6883
行李	-6884
补上	-6885
西南	-6886
西风	-6887
认作	-6888
讨人	-6889
说呢	-6890
说说	-6891
请她	-6892
请来	-6893
谁想	-6894
谁肯	-6895
调理	-6896
谢你	-6897
贵贱	-6898
费了	-6899
贾扁	-6900
贾珠	-6901
贾琮	-6902
贾门	-6903
赌博	-6904
起社	-6905
趁便	-6906
跟来	-6907
躬身	-6908
车上	-6909
轿内	-6910
近前	-6911
还亏	-6912
这首	-6913
进士	-6914
远的	-6915
连你	-6916
送入	-6917
通红	-6918
逛去	-6919
遂将	-6920
那等	-6921
邪祟	-6922
邪魔	-6923
配人	-6924
醒来	-6925
金星	-6926
银的	-6927
银鼠	-6928
门杯	-6929
问其	-6930
闲谈	-6931
阴司	-6932
院落	-6933
隆儿	-6934
隆恩	-6935
随口	-6936
难了	-6937
难事	-6938
零碎	-6939
静室	-6940
面目	-6941
音乐	-6942
题曰	-6943
题着	-6944
额外	-6945
飘飘	-6946
饭吃	-6947
首诗	-6948
驳回	-6949
鬼怪	-6950
▁彼时	-6951
一个大	-6952
一二百	-6953
一径往	-6954
一群人	-6955
一面便	-6956
万不可	-6957
上了车	-6958
下剩的	-6959
不叫我	-6960
不如你	-6961
不犯着	-6962
不知他	-6963
不耐烦	-6964
不见效	-6965
不长进	-6966
与尤氏	-6967
两个月	-6968
也不得	-6969
也笑着	-6970
了一下	-6971
了一地	-6972
了两日	-6973
了几年	-6974
二门口	-6975
云丫头	-6976
五一十	-6977
交给你	-6978
交给我	-6979
什么的	-6980
今儿又	-6981
众嬷嬷	-6982
众家人	-6983
众清客	-6984
伙计们	-6985
会说话	-6986
伺候着	-6987
你们是	-6988
你又说	-6989
你可别	-6990
你太太	-6991
你打量	-6992
你替我	-6993
你来了	-6994
你老爷	-6995
便伸手	-6996
便回头	-6997
便拉了	-6998
便笑着	-6999
信以为	-7000
傻丫头	-7001
冷子兴	-7002
几个月	-7003
凤姐便	-7004
出去罢	-7005
出病来	-7006
刚说着	-7007
初一日	-7008
别生气	-7009
到各处	-7010
到跟前	-7011
十五日	-7012
卜世仁	-7013
又不大	-7014
又不肯	-7015
又何必	-7016
又想到	-7017
又是笑	-7018
口气道	-7019
只怕是	-7020
只是我	-7021
只是笑	-7022
只穿著	-7023
只管说	-7024
只说我	-7025
叫她来	-7026
合上眼	-7027
同宝玉	-7028
听了一	-7029
告诉人	-7030
命人去	-7031
和你好	-7032
咱们就	-7033
哥哥的	-7034
哪里有	-7035
喝一口	-7036
喝一杯	-7037
喝了几	-7038
嗳哟哟	-7039
四个字	-7040
四五个	-7041
因又问	-7042
因回头	-7043
在园中	-7044
在头里	-7045
在榻上	-7046
坐着罢	-7047
士隐道	-7048
大夫来	-7049
大小的	-7050
女人们	-7051
女学生	-7052
她自己	-7053
她自然	-7054
好几个	-7055
如今才	-7056
如今是	-7057
如得了	-7058
如有所	-7059
妥当了	-7060
姑娘也	-7061
姑娘好	-7062
娶了亲	-7063
婆子来	-7064
宋嬷嬷	-7065
宝玉病	-7066
宝玉虽	-7067
家人们	-7068
将手一	-7069
就是个	-7070
就是那	-7071
山坡上	-7072
岫烟道	-7073
平儿等	-7074
应该的	-7075
张德辉	-7076
张王氏	-7077
心中也	-7078
忍不住	-7079
忙什么	-7080
忙陪笑	-7081
快快的	-7082
忽想起	-7083
怎么能	-7084
想得到	-7085
愿意的	-7086
我一时	-7087
我不是	-7088
我们还	-7089
我回去	-7090
我带了	-7091
我所以	-7092
我方才	-7093
我昨儿	-7094
我没有	-7095
我看他	-7096
我看你	-7097
我看见	-7098
我素日	-7099
我这个	-7100
所以她	-7101
打听得	-7102
打扮得	-7103
抹骨牌	-7104
拿住了	-7105
探丫头	-7106
撵出去	-7107
收起来	-7108
新媳妇	-7109
方想起	-7110
方才所	-7111
无法无	-7112
无言可	-7113
明日再	-7114
来请安	-7115
果然好	-7116
果然是	-7117
横竖有	-7118
正二刻	-7119
比别的	-7120
没见过	-7121
没造化	-7122
清早起	-7123
狠狠的	-7124
玉右扁	-7125
琥珀等	-7126
生了气	-7127
略好些	-7128
的一笑	-7129
的什么	-7130
的就是	-7131
看上了	-7132
瞪着眼	-7133
知道是	-7134
穿一件	-7135
竟是个	-7136
等太太	-7137
等过了	-7138
给二爷	-7139
给你的	-7140
老爷是	-7141
自己倒	-7142
自己先	-7143
节度使	-7144
芦雪庵	-7145
莲花儿	-7146
虽有几	-7147
袭人又	-7148
见了他	-7149
见了我	-7150
见贾琏	-7151
见这般	-7152
觑着眼	-7153
认得了	-7154
说一声	-7155
贾兰道	-7156
贾琏等	-7157
走一趟	-7158
走来说	-7159
起我来	-7160
起来的	-7161
趁早儿	-7162
跟了去	-7163
过去呢	-7164
还不好	-7165
这一去	-7166
这一干	-7167
这两句	-7168
这个事	-7169
这么想	-7170
这原是	-7171
进来时	-7172
进里间	-7173
送东西	-7174
那一种	-7175
那一边	-7176
那僧道	-7177
那几个	-7178
那大夫	-7179
都来了	-7180
闲话儿	-7181
院门前	-7182
预备了	-7183
一个一个	-7184
一个男人	-7185
不知何意	-7186
两个女人	-7187
也在这里	-7188
五儿听了	-7189
人人都说	-7190
什么时候	-7191
但只一件	-7192
住在这里	-7193
何尝不是	-7194
你有什么	-7195
便站起来	-7196
十分欢喜	-7197
又哭起来	-7198
口内说道	-7199
口里说着	-7200
只是一件	-7201
只见紫鹃	-7202
叹口气道	-7203
吃了一惊	-7204
各自散了	-7205
后来听见	-7206
听见宝玉	-7207
告诉宝玉	-7208
周瑞的干	-7209
咱们都是	-7210
回家去了	-7211
因又说道	-7212
垂手侍立	-7213
好好儿的	-7214
好端端的	-7215
定了主意	-7216
宝玉因问	-7217
宝玉点头	-7218
心中自是	-7219
心里喜欢	-7220
心里想着	-7221
忙站起来	-7222
怡红院来	-7223
惜春听了	-7224
想了一回	-7225
感谢不尽	-7226
我一个人	-7227
我又不是	-7228
我的不是	-7229
拉拉扯扯	-7230
拿了一个	-7231
摆上饭来	-7232
斟了一杯	-7233
既是这样	-7234
既这样说	-7235
是知道的	-7236
是老太太	-7237
晴雯姐姐	-7238
暂且不提	-7239
有个好歹	-7240
来了一个	-7241
林姑娘的	-7242
此是后话	-7243
没良心的	-7244
点了一出	-7245
猫儿狗儿	-7246
王夫人便	-7247
王夫人的	-7248
用的东西	-7249
的东西都	-7250
笑了一回	-7251
笑着说道	-7252
紫鹃连忙	-7253
老太太还	-7254
见他进来	-7255
见她来了	-7256
见她这般	-7257
让了一回	-7258
说说笑笑	-7259
请二奶奶	-7260
请安问好	-7261
贾政看了	-7262
贾母便命	-7263
身上穿著	-7264
躺在炕上	-7265
迎了出来	-7266
还有两个	-7267
这个东西	-7268
这么大了	-7269
这会子还	-7270
进入房中	-7271
连忙答应	-7272
连忙起身	-7273
退了出来	-7274
香菱听了	-7275
黛玉听说	-7276
▁宝玉听说	-7277
▁这里贾母	-7278
不觉红了脸	-7279
依我的主意	-7280
叹了一口气	-7281
大惊小怪的	-7282
往贾母处来	-7283
没要紧的事	-7284
周瑞家的听了	-7285
周瑞的干儿子	-7286
在老太太跟前	-7287
‘,	-7288
一包	-7289
一坛	-7290
一找	-7291
一推	-7292
一掷	-7293
一朝	-7294
一歇	-7295
一盏	-7296
一经	-7297
一腔	-7298
一觉	-7299
一门	-7300
万福	-7301
三回	-7302
三寸	-7303
三张	-7304
三杯	-7305
三等	-7306
下世	-7307
下句	-7308
下房	-7309
下死	-7310
不俗	-7311
不意	-7312
不效	-7313
不断	-7314
不早	-7315
不期	-7316
不爱	-7317
不祥	-7318
与人	-7319
且不	-7320
且去	-7321
且喜	-7322
世代	-7323
世宦	-7324
世界	-7325
世的	-7326
两匹	-7327
两字	-7328
两张	-7329
两枝	-7330
中之	-7331
临安	-7332
临死	-7333
为主	-7334
久了	-7335
之期	-7336
之法	-7337
之音	-7338
九回	-7339
九月	-7340
也叫	-7341
乱着	-7342
乱跳	-7343
事事	-7344
事体	-7345
事小	-7346
二个	-7347
五年	-7348
亦未	-7349
京官	-7350
人往	-7351
今已	-7352
今既	-7353
今朝	-7354
介意	-7355
从未	-7356
令他	-7357
们都	-7358
份例	-7359
优伶	-7360
伙贼	-7361
传唤	-7362
传说	-7363
传谕	-7364
伸出	-7365
低下	-7366
住脚	-7367
何以	-7368
何名	-7369
何干	-7370
何故	-7371
作成	-7372
你却	-7373
你少	-7374
你当	-7375
你念	-7376
你敢	-7377
你爱	-7378
你能	-7379
侧身	-7380
便好	-7381
倒别	-7382
倘若	-7383
借此	-7384
借着	-7385
倪家	-7386
停放	-7387
偷了	-7388
傅试	-7389
儿家	-7390
兄妹	-7391
先叫	-7392
先要	-7393
全的	-7394
共总	-7395
内人	-7396
内眷	-7397
再娶	-7398
再定	-7399
写上	-7400
写在	-7401
写毕	-7402
冤孽	-7403
冲撞	-7404
几上	-7405
凤来	-7406
出头	-7407
出席	-7408
初一	-7409
初次	-7410
到任	-7411
到头	-7412
到来	-7413
前厅	-7414
力量	-7415
办得	-7416
加一	-7417
勒死	-7418
北边	-7419
医治	-7420
十锦	-7421
午间	-7422
半载	-7423
卖了	-7424
即便	-7425
原有	-7426
去年	-7427
又加	-7428
又发	-7429
又可	-7430
又吃	-7431
又哭	-7432
又急	-7433
又拉	-7434
又招	-7435
又给	-7436
又转	-7437
及此	-7438
发笑	-7439
发誓	-7440
发财	-7441
叔侄	-7442
受苦	-7443
口称	-7444
口舌	-7445
古迹	-7446
句句	-7447
叨登	-7448
只向	-7449
只问	-7450
叫住	-7451
叫着	-7452
可也	-7453
右手	-7454
吃两	-7455
吃年	-7456
吃惊	-7457
各省	-7458
各种	-7459
吉日	-7460
吊钱	-7461
名为	-7462
名的	-7463
后人	-7464
后院	-7465
吏部	-7466
吐出	-7467
君荣	-7468
听候	-7469
听完	-7470
吴良	-7471
呱呱	-7472
命将	-7473
命薄	-7474
和谁	-7475
哄她	-7476
哥嫂	-7477
哪位	-7478
哭声	-7479
唇边	-7480
唤了	-7481
唤她	-7482
唤来	-7483
嘲笑	-7484
嚎啕	-7485
四支	-7486
四肢	-7487
回事	-7488
回复	-7489
回手	-7490
回转	-7491
因要	-7492
圣明	-7493
在时	-7494
在望	-7495
地亩	-7496
地位	-7497
坐上	-7498
坐席	-7499
坐起	-7500
声色	-7501
壶来	-7502
夏天	-7503
外国	-7504
多天	-7505
多浑	-7506
多言	-7507
大半	-7508
大毛	-7509
大海	-7510
大臣	-7511
天又	-7512
天性	-7513
天还	-7514
天长	-7515
失单	-7516
失声	-7517
头家	-7518
头晕	-7519
奏明	-7520
套话	-7521
她不	-7522
她那	-7523
好儿	-7524
妆饰	-7525
妇女	-7526
妥协	-7527
姐夫	-7528
姑舅	-7529
姓张	-7530
威风	-7531
婚姻	-7532
嫌她	-7533
嫌我	-7534
字样	-7535
孙女	-7536
孙家	-7537
孙绍	-7538
孝心	-7539
守备	-7540
安寝	-7541
安置	-7542
安逸	-7543
定下	-7544
宝珠	-7545
家奴	-7546
家运	-7547
容貌	-7548
宽裕	-7549
对证	-7550
寻了	-7551
寻访	-7552
将门	-7553
小女	-7554
小妹	-7555
小道	-7556
就便	-7557
就请	-7558
尽情	-7559
屋门	-7560
山庄	-7561
差事	-7562
已见	-7563
已过	-7564
帐目	-7565
带些	-7566
带出	-7567
常事	-7568
常来	-7569
帽子	-7570
干妈	-7571
平日	-7572
年例	-7573
年迈	-7574
并蒂	-7575
应允	-7576
庵中	-7577
庶出	-7578
开着	-7579
弄些	-7580
式的	-7581
引枕	-7582
弯腰	-7583
当了	-7584
当差	-7585
往上	-7586
心愿	-7587
心痛	-7588
必然	-7589
忍耐	-7590
忙将	-7591
忙要	-7592
忧虑	-7593
快说	-7594
怎生	-7595
思索	-7596
怯弱	-7597
总管	-7598
恨的	-7599
恩旨	-7600
情缘	-7601
惊慌	-7602
意了	-7603
成的	-7604
我使	-7605
我做	-7606
我喝	-7607
我必	-7608
我死	-7609
我连	-7610
戴上	-7611
房的	-7612
手巾	-7613
才子	-7614
才情	-7615
才把	-7616
打呢	-7617
打盹	-7618
托他	-7619
托我	-7620
找他	-7621
把头	-7622
投井	-7623
折磨	-7624
抢白	-7625
报说	-7626
披衣	-7627
抱了	-7628
抿嘴	-7629
拍着	-7630
招手	-7631
拿他	-7632
挨着	-7633
捆了	-7634
捶腿	-7635
掉了	-7636
接出	-7637
推辞	-7638
掩住	-7639
提了	-7640
提醒	-7641
揪住	-7642
摆下	-7643
撞在	-7644
撤去	-7645
撺掇	-7646
收下	-7647
收起	-7648
改过	-7649
放手	-7650
效力	-7651
教习	-7652
散花	-7653
斟上	-7654
斟酒	-7655
方得	-7656
无措	-7657
无甚	-7658
无疑	-7659
日久	-7660
日头	-7661
时气	-7662
昏了	-7663
暖香	-7664
暗里	-7665
曲折	-7666
月饼	-7667
有信	-7668
有知	-7669
服的	-7670
朝中	-7671
本人	-7672
本地	-7673
本官	-7674
本性	-7675
杏帘	-7676
来过	-7677
极爱	-7678
树下	-7679
梦里	-7680
椒房	-7681
槟榔	-7682
欠安	-7683
正因	-7684
正堂	-7685
正言	-7686
正配	-7687
此一	-7688
此间	-7689
死呢	-7690
死者	-7691
母舅	-7692
比她	-7693
气味	-7694
水流	-7695
沉重	-7696
没吃	-7697
没福	-7698
治死	-7699
海灯	-7700
淡的	-7701
添病	-7702
清秀	-7703
满头	-7704
满满	-7705
满身	-7706
漆黑	-7707
灯谜	-7708
炕桌	-7709
烂了	-7710
烫了	-7711
焉知	-7712
然而	-7713
煎药	-7714
熏笼	-7715
熬煎	-7716
爹娘	-7717
狐皮	-7718
狮子	-7719
献茶	-7720
玉来	-7721
王妃	-7722
王孙	-7723
玩呢	-7724
玩器	-7725
玩罢	-7726
理我	-7727
琵琶	-7728
璎珞	-7729
甚喜	-7730
生于	-7731
画了	-7732
略等	-7733
疯傻	-7734
疼你	-7735
白玉	-7736
的假	-7737
的名	-7738
的娘	-7739
的有	-7740
的水	-7741
的脸	-7742
的都	-7743
皆不	-7744
监里	-7745
直待	-7746
相识	-7747
相问	-7748
看毕	-7749
看破	-7750
着腰	-7751
瞧看	-7752
知觉	-7753
知音	-7754
碗茶	-7755
碰见	-7756
礼数	-7757
礼毕	-7758
祖上	-7759
神思	-7760
神气	-7761
神的	-7762
祠堂	-7763
禁尉	-7764
福气	-7765
穗子	-7766
穷了	-7767
穿凿	-7768
穿孝	-7769
穿花	-7770
窗前	-7771
竟像	-7772
端着	-7773
端过	-7774
端阳	-7775
笑儿	-7776
笑声	-7777
笨的	-7778
第五	-7779
答话	-7780
算去	-7781
粳米	-7782
糟踏	-7783
系着	-7784
紫檀	-7785
纱橱	-7786
纸来	-7787
纸笔	-7788
给还	-7789
绛珠	-7790
统制	-7791
绣房	-7792
缎子	-7793
缝儿	-7794
缠的	-7795
罪孽	-7796
罪过	-7797
置办	-7798
美玉	-7799
老公	-7800
老大	-7801
老天	-7802
老脸	-7803
而起	-7804
耳内	-7805
耽误	-7806
联句	-7807
聪敏	-7808
脸红	-7809
腰里	-7810
腼腆	-7811
自叹	-7812
自尽	-7813
自谓	-7814
至一	-7815
致使	-7816
舀水	-7817
舌根	-7818
舌的	-7819
节下	-7820
花卉	-7821
花落	-7822
花钱	-7823
花香	-7824
苦处	-7825
茶叶	-7826
菱角	-7827
葱绿	-7828
葵官	-7829
蒲团	-7830
薛大	-7831
虎狼	-7832
虽也	-7833
虽小	-7834
蝴蝶	-7835
血来	-7836
衣履	-7837
衣襟	-7838
表兄	-7839
被她	-7840
被我	-7841
装睡	-7842
要想	-7843
角上	-7844
解了	-7845
言词	-7846
譬如	-7847
议事	-7848
讲的	-7849
设法	-7850
评评	-7851
话长	-7852
说嘴	-7853
说时	-7854
请坐	-7855
请的	-7856
谁又	-7857
谢我	-7858
谢礼	-7859
豆官	-7860
货物	-7861
贫穷	-7862
贴身	-7863
赏花	-7864
赤子	-7865
走得	-7866
起初	-7867
起复	-7868
起程	-7869
足的	-7870
跌足	-7871
跑出	-7872
踪迹	-7873
身量	-7874
车辆	-7875
轻狂	-7876
轻重	-7877
运气	-7878
还少	-7879
还愿	-7880
还算	-7881
这段	-7882
连三	-7883
连叫	-7884
连饭	-7885
追赶	-7886
送的	-7887
送礼	-7888
适才	-7889
遂命	-7890
遭了	-7891
遭踏	-7892
那有	-7893
那老	-7894
都称	-7895
酒的	-7896
酥酪	-7897
里有	-7898
重新	-7899
野鸡	-7900
金子	-7901
钓竿	-7902
银蝶	-7903
长一	-7904
长辈	-7905
门下	-7906
门内	-7907
门槛	-7908
门的	-7909
问过	-7910
闲时	-7911
闹去	-7912
防着	-7913
陛见	-7914
院子	-7915
院来	-7916
随身	-7917
隔了	-7918
难处	-7919
难说	-7920
霸占	-7921
青衣	-7922
非同	-7923
靴子	-7924
音信	-7925
须眉	-7926
题一	-7927
颠倒	-7928
饶你	-7929
香料	-7930
香火	-7931
香烛	-7932
香芋	-7933
骂的	-7934
骨头	-7935
高了	-7936
鹦鹉	-7937
黄汤	-7938
鼓乐	-7939
齐声	-7940
▁不言	-7941
▁晚间	-7942
一个来	-7943
一个钱	-7944
一二年	-7945
一会儿	-7946
一声响	-7947
一概都	-7948
一肚子	-7949
一行说	-7950
一面命	-7951
一面哭	-7952
万银子	-7953
三丫头	-7954
三四十	-7955
三姐姐	-7956
上一个	-7957
不像了	-7958
不叫他	-7959
不妨事	-7960
不理她	-7961
不知你	-7962
不知要	-7963
不舒服	-7964
不说了	-7965
不过略	-7966
与二姐	-7967
与姑娘	-7968
与探春	-7969
且不必	-7970
中用了	-7971
临安伯	-7972
也不来	-7973
也不至	-7974
也不说	-7975
也容易	-7976
也得了	-7977
也愿意	-7978
也没人	-7979
也知道	-7980
了一摸	-7981
了一条	-7982
了一根	-7983
了一步	-7984
了一身	-7985
了你的	-7986
了几下	-7987
了几样	-7988
了半夜	-7989
了半截	-7990
了贾母	-7991
二三十	-7992
二则也	-7993
二十四	-7994
五更天	-7995
五言律	-7996
亦不能	-7997
人不知	-7998
人进来	-7999
什么人	-8000
什么吃	-8001
什么好	-8002
从梦中	-8003
从里间	-8004
他睡下	-8005
会芳园	-8006
作一首	-8007
你不必	-8008
你也太	-8009
你今日	-8010
你们不	-8011
你听听	-8012
你天天	-8013
你如何	-8014
你把那	-8015
你死了	-8016
你母亲	-8017
你说罢	-8018
你说说	-8019
便坐在	-8020
便想起	-8021
便知她	-8022
便赌气	-8023
倒茶来	-8024
况且她	-8025
凤姐又	-8026
凤姐已	-8027
凤姑娘	-8028
凤来仪	-8029
出了阁	-8030
刚到了	-8031
别人的	-8032
别人都	-8033
到如此	-8034
到自己	-8035
到这个	-8036
前儿我	-8037
前想后	-8038
十二两	-8039
又伤心	-8040
又命将	-8041
又回道	-8042
又如何	-8043
又恐怕	-8044
又有人	-8045
又犯了	-8046
口口声	-8047
只当他	-8048
只道是	-8049
叫你去	-8050
叫贾琏	-8051
可知是	-8052
吩咐她	-8053
听见他	-8054
和咱们	-8055
和太太	-8056
和那些	-8057
咱们也	-8058
咱们都	-8059
哪里还	-8060
哭得泪	-8061
商议了	-8062
商量着	-8063
嘱咐了	-8064
嚷起来	-8065
四姐儿	-8066
回姑娘	-8067
回说道	-8068
回避了	-8069
园里来	-8070
在我们	-8071
在房中	-8072
在老爷	-8073
在门外	-8074
在院内	-8075
外头去	-8076
多浑虫	-8077
大丫头	-8078
大了道	-8079
大家子	-8080
太医院	-8081
太太说	-8082
夫妻蕙	-8083
奶奶了	-8084
她哥哥	-8085
她嫂子	-8086
她死了	-8087
她的手	-8088
好哥哥	-8089
如今她	-8090
如何敢	-8091
如何能	-8092
如雨下	-8093
妙玉的	-8094
妹妹的	-8095
姑娘要	-8096
媳妇子	-8097
媳妇来	-8098
孙绍祖	-8099
安静些	-8100
宝玉笑	-8101
宝琴等	-8102
宝钗忙	-8103
将一个	-8104
小厮道	-8105
小姐们	-8106
小小的	-8107
就是你	-8108
就没有	-8109
山石上	-8110
干什么	-8111
平儿说	-8112
并不见	-8113
庄家人	-8114
底下的	-8115
廊檐下	-8116
弄了来	-8117
弄坏了	-8118
心里有	-8119
必不能	-8120
忙说道	-8121
忙跪下	-8122
忙转身	-8123
怎么怨	-8124
急急的	-8125
恍恍惚	-8126
悄笑道	-8127
想不出	-8128
想不起	-8129
我不能	-8130
我何尝	-8131
我和她	-8132
我家里	-8133
我得了	-8134
我打量	-8135
我把你	-8136
我给你	-8137
我老娘	-8138
我说你	-8139
我说呢	-8140
我还没	-8141
我这话	-8142
或有一	-8143
房中来	-8144
房里去	-8145
才好些	-8146
找出来	-8147
把这一	-8148
把那些	-8149
抱怨说	-8150
招手儿	-8151
拿回去	-8152
捱了打	-8153
接着道	-8154
放心罢	-8155
政老爹	-8156
方出来	-8157
方笑道	-8158
既来了	-8159
早有人	-8160
明儿我	-8161
明日就	-8162
明白的	-8163
是一个	-8164
是个有	-8165
是这个	-8166
晴雯忙	-8167
替宝玉	-8168
有一半	-8169
有了事	-8170
本是个	-8171
来了么	-8172
林大娘	-8173
歇一歇	-8174
正说话	-8175
正闹着	-8176
沁芳桥	-8177
没一个	-8178
没有的	-8179
没脸的	-8180
海棠社	-8181
王家的	-8182
环哥儿	-8183
瑞大爷	-8184
甄夫人	-8185
的事都	-8186
的夫人	-8187
的女儿	-8188
的心腹	-8189
的故事	-8190
的时节	-8191
的衣服	-8192
的话了	-8193
看起来	-8194
眼看着	-8195
着人去	-8196
着什么	-8197
睡下了	-8198
瞧见了	-8199
磕个头	-8200
秋爽斋	-8201
竟不知	-8202
笑骂道	-8203
算起来	-8204
箱子里	-8205
紫菱洲	-8206
胡涂人	-8207
至宁府	-8208
至晚间	-8209
芳官等	-8210
芳官道	-8211
芸哥儿	-8212
蘅芜君	-8213
虽不是	-8214
袭人因	-8215
西平王	-8216
西府里	-8217
要不是	-8218
见如此	-8219
见紫鹃	-8220
见袭人	-8221
詹光道	-8222
让我们	-8223
诊了脉	-8224
说了个	-8225
说完了	-8226
说错了	-8227
谁知他	-8228
谁知竟	-8229
谢了恩	-8230
贾大人	-8231
贾家的	-8232
贾环等	-8233
赖大等	-8234
走了一	-8235
起人来	-8236
过了门	-8237
过得去	-8238
迎上去	-8239
这一件	-8240
这么早	-8241
这些时	-8242
这半日	-8243
进京来	-8244
连忙把	-8245
送出去	-8246
造化了	-8247
那一位	-8248
那不是	-8249
那凤姐	-8250
那样的	-8251
那边有	-8252
那道士	-8253
那长史	-8254
都是你	-8255
都是我	-8256
都说道	-8257
金麒麟	-8258
银子钱	-8259
铺子里	-8260
门上的	-8261
闹出来	-8262
预备着	-8263
颤巍巍	-8264
龙禁尉	-8265
▁第六十	-8266
▁薛姨妈	-8267
▁邢夫人	-8268
一时半刻	-8269
一辈子的	-8270
一面又问	-8271
一面说道	-8272
上车去了	-8273
不中用了	-8274
不但不能	-8275
不出来的	-8276
不得主意	-8277
不必说了	-8278
不敢作声	-8279
不知是谁	-8280
两个人的	-8281
两个人都	-8282
两个姨娘	-8283
两个小厮	-8284
两银子的	-8285
也是好的	-8286
了一句话	-8287
了人家的	-8288
什么大事	-8289
众人不解	-8290
住儿媳妇	-8291
你到底是	-8292
你在那里	-8293
使个眼色	-8294
便不言语	-8295
便命人去	-8296
便悄悄的	-8297
倒也十分	-8298
倪家母女	-8299
凤姐儿说	-8300
凤姐又道	-8301
刁钻古怪	-8302
到了跟前	-8303
南安太妃	-8304
去了半日	-8305
口口声声	-8306
只听宝玉	-8307
只得罢了	-8308
只是心里	-8309
只有宝玉	-8310
只见晴雯	-8311
叫她进来	-8312
叫小丫头	-8313
可大好了	-8314
可巧遇见	-8315
叹了一声	-8316
向宝玉道	-8317
听见有人	-8318
和薛姨妈	-8319
咕咕唧唧	-8320
哪里去了	-8321
哪里来的	-8322
喜不自禁	-8323
喜出望外	-8324
四个大字	-8325
回房去了	-8326
回来告诉	-8327
回来说道	-8328
因又问道	-8329
在一处的	-8330
在外书房	-8331
在大太太	-8332
在家里呢	-8333
在这屋里	-8334
大清早起	-8335
奶奶这样	-8336
姐儿两个	-8337
宝玉看时	-8338
宝玉自己	-8339
小丫头道	-8340
就回来了	-8341
带了一个	-8342
并不知道	-8343
往哪里去	-8344
得罪了我	-8345
心下自思	-8346
忙答应了	-8347
思前想后	-8348
恍恍惚惚	-8349
悄悄儿的	-8350
我们自然	-8351
打了一顿	-8352
打发我来	-8353
拿了出来	-8354
捧上茶来	-8355
摇摇头儿	-8356
摸了一摸	-8357
放在桌上	-8358
放声大哭	-8359
无可如何	-8360
来回太太	-8361
果然不错	-8362
歇息歇息	-8363
正是这话	-8364
满面泪痕	-8365
热闹非常	-8366
玉钏儿道	-8367
王夫人正	-8368
的地方儿	-8369
的小丫头	-8370
的小厮们	-8371
看了一遍	-8372
神瑛侍者	-8373
站在那里	-8374
站起来道	-8375
站起身来	-8376
笑起来了	-8377
老太太要	-8378
自是欢喜	-8379
自然也是	-8380
薛姨妈也	-8381
薛蟠笑道	-8382
要知端详	-8383
见了贾母	-8384
见他来了	-8385
说些什么	-8386
说得很是	-8387
说闲话儿	-8388
请姨太太	-8389
贾政即忙	-8390
贾母跟前	-8391
贾母这边	-8392
贾芸笑道	-8393
赵姨奶奶	-8394
迎春笑道	-8395
还有一个	-8396
还有几个	-8397
还有许多	-8398
这一辈子	-8399
这个样儿	-8400
这样起来	-8401
进来回说	-8402
进来请安	-8403
邢夫人的	-8404
那僧笑道	-8405
那林黛玉	-8406
那老婆子	-8407
那边的人	-8408
都是你们	-8409
都没有了	-8410
长叹一声	-8411
青埂峰下	-8412
马道婆道	-8413
鸦雀无闻	-8414
鸳鸯姐姐	-8415
▁众人看了	-8416
▁宝玉笑道	-8417
▁这里凤姐	-8418
一个老婆子	-8419
也不敢言语	-8420
也说不出来	-8421
众人都笑说	-8422
你还不知道	-8423
你这会子又	-8424
凤姐冷笑道	-8425
告诉了一遍	-8426
大家都笑了	-8427
大红猩猩毡	-8428
如今老太太	-8429
宝玉冷笑道	-8430
尤二姐笑道	-8431
就是老太太	-8432
往哪里去了	-8433
心中不自在	-8434
慌慌张张的	-8435
我也不知道	-8436
我们这些人	-8437
探春冷笑道	-8438
无精打彩的	-8439
服侍老太太	-8440
老太太屋里	-8441
老太太身上	-8442
老太太高兴	-8443
见了王夫人	-8444
见宝玉来了	-8445
还有一句话	-8446
不觉滴下泪来	-8447
哭得死去活来	-8448
原字为左玉右扁	-8449
?,	-8450
“”	-8451
▁其	-8452
▁时	-8453
一串	-8454
一乘	-8455
一出	-8456
一剂	-8457
一去	-8458
一响	-8459
一子	-8460
一小	-8461
一支	-8462
一旦	-8463
一梦	-8464
一节	-8465
一计	-8466
一试	-8467
一过	-8468
一遭	-8469
七回	-8470
七日	-8471
万谢	-8472
三两	-8473
三姨	-8474
三门	-8475
上供	-8476
上千	-8477
上日	-8478
下个	-8479
下凡	-8480
下场	-8481
下家	-8482
下雨	-8483
不中	-8484
不周	-8485
不喝	-8486
不回	-8487
不宜	-8488
不忘	-8489
不忿	-8490
不改	-8491
不独	-8492
不留	-8493
不睦	-8494
不致	-8495
不谙	-8496
业的	-8497
东北	-8498
丢开	-8499
两块	-8500
两声	-8501
两套	-8502
两桌	-8503
两盆	-8504
中所	-8505
为之	-8506
为奇	-8507
为妾	-8508
为王	-8509
为由	-8510
为谁	-8511
主见	-8512
举动	-8513
举目	-8514
之剂	-8515
之功	-8516
之故	-8517
之数	-8518
之族	-8519
之极	-8520
之灵	-8521
之至	-8522
之色	-8523
之词	-8524
之话	-8525
乖觉	-8526
乜斜	-8527
也像	-8528
也打	-8529
也省	-8530
书来	-8531
书的	-8532
书籍	-8533
乱跑	-8534
了药	-8535
了那	-8536
了饭	-8537
争着	-8538
二千	-8539
二等	-8540
于此	-8541
亏他	-8542
五回	-8543
些时	-8544
亡故	-8545
交代	-8546
亭子	-8547
亲上	-8548
亲见	-8549
人亡	-8550
人儿	-8551
人客	-8552
人才	-8553
人皆	-8554
今又	-8555
今生	-8556
从何	-8557
从命	-8558
从新	-8559
从那	-8560
任上	-8561
传与	-8562
传递	-8563
估量	-8564
伴宿	-8565
住得	-8566
何为	-8567
何得	-8568
佛爷	-8569
作亲	-8570
作戏	-8571
作此	-8572
作粗	-8573
作耍	-8574
作过	-8575
你便	-8576
你妈	-8577
你见	-8578
佳节	-8579
使其	-8580
使呢	-8581
使费	-8582
依依	-8583
依次	-8584
依着	-8585
侧耳	-8586
便了	-8587
便仍	-8588
便大	-8589
便欲	-8590
俊俏	-8591
俊的	-8592
俗了	-8593
保山	-8594
信口	-8595
信步	-8596
修理	-8597
俱各	-8598
倒去	-8599
倒比	-8600
倚势	-8601
值钱	-8602
偏要	-8603
做些	-8604
做出	-8605
催着	-8606
先别	-8607
光辉	-8608
光阴	-8609
入都	-8610
入门	-8611
全仗	-8612
八人	-8613
八分	-8614
八回	-8615
八日	-8616
六回	-8617
兰花	-8618
共是	-8619
关上	-8620
关切	-8621
其所	-8622
养了	-8623
养荣	-8624
内监	-8625
册上	-8626
再叫	-8627
再吃	-8628
再听	-8629
再回	-8630
再找	-8631
再等	-8632
写出	-8633
写完	-8634
冯渊	-8635
况兼	-8636
冷汗	-8637
凉快	-8638
几间	-8639
几首	-8640
出于	-8641
出口	-8642
出处	-8643
出房	-8644
出汗	-8645
出题	-8646
击鼓	-8647
分例	-8648
分的	-8649
分证	-8650
分辨	-8651
别家	-8652
别话	-8653
别过	-8654
到后	-8655
前生	-8656
前边	-8657
副册	-8658
劝劝	-8659
劝的	-8660
动气	-8661
势利	-8662
勾了	-8663
包好	-8664
化了	-8665
北门	-8666
匠人	-8667
匾上	-8668
十余	-8669
十里	-8670
千恩	-8671
半仙	-8672
半旧	-8673
半点	-8674
卖的	-8675
却倒	-8676
却好	-8677
卷子	-8678
压压	-8679
厌恶	-8680
原想	-8681
原本	-8682
原由	-8683
厮混	-8684
厮见	-8685
厮闹	-8686
去到	-8687
又劝	-8688
又喜	-8689
又因	-8690
又复	-8691
又惊	-8692
又指	-8693
又请	-8694
又遇	-8695
发引	-8696
发晕	-8697
发泄	-8698
发起	-8699
取个	-8700
受罪	-8701
受过	-8702
叙些	-8703
叩谢	-8704
只一	-8705
只不	-8706
只恨	-8707
只愿	-8708
叫呢	-8709
叫喊	-8710
叫进	-8711
叫门	-8712
可又	-8713
可通	-8714
右想	-8715
司员	-8716
吃呢	-8717
吃斋	-8718
吃醋	-8719
合该	-8720
同名	-8721
同行	-8722
后又	-8723
后生	-8724
向前	-8725
向里	-8726
吟道	-8727
听戏	-8728
吵闹	-8729
命呢	-8730
命苦	-8731
和睦	-8732
和顺	-8733
咬着	-8734
咭咭	-8735
唱曲	-8736
喜儿	-8737
喝住	-8738
嘁嘁	-8739
嘟嘟	-8740
回九	-8741
因与	-8742
因有	-8743
因果	-8744
因道	-8745
围棋	-8746
固是	-8747
图样	-8748
在侧	-8749
地步	-8750
地藏	-8751
坏心	-8752
堆着	-8753
堆砌	-8754
墙角	-8755
处有	-8756
夏三	-8757
外省	-8758
外罩	-8759
多坐	-8760
多得	-8761
多月	-8762
多有	-8763
多话	-8764
夜叉	-8765
夜晚	-8766
大方	-8767
大杯	-8768
大板	-8769
大荒	-8770
大雨	-8771
天仙	-8772
天伦	-8773
天喜	-8774
天外	-8775
天子	-8776
天然	-8777
天色	-8778
太多	-8779
央及	-8780
失于	-8781
头子	-8782
头油	-8783
奇缘	-8784
奉命	-8785
她先	-8786
好作	-8787
好色	-8788
好茶	-8789
如同	-8790
如若	-8791
妄想	-8792
姑表	-8793
姓贾	-8794
姨爹	-8795
姽婳	-8796
威福	-8797
子了	-8798
字画	-8799
字辈	-8800
孙行	-8801
守灵	-8802
安息	-8803
宋妈	-8804
官儿	-8805
宝官	-8806
宝石	-8807
宫中	-8808
宫门	-8809
家父	-8810
富丽	-8811
对头	-8812
对景	-8813
寺中	-8814
封条	-8815
封锁	-8816
将此	-8817
小叔	-8818
小器	-8819
小耗	-8820
少述	-8821
尖儿	-8822
尚小	-8823
就剩	-8824
就拿	-8825
就死	-8826
就混	-8827
就罢	-8828
尸场	-8829
尺头	-8830
尽其	-8831
尽力	-8832
尽知	-8833
尽行	-8834
岁上	-8835
岂可	-8836
岂肯	-8837
左思	-8838
已出	-8839
帘栊	-8840
带信	-8841
带的	-8842
常时	-8843
干系	-8844
年庚	-8845
年来	-8846
并说	-8847
库上	-8848
座上	-8849
开戏	-8850
开箱	-8851
异事	-8852
弃了	-8853
式样	-8854
引了	-8855
弹墨	-8856
当票	-8857
往事	-8858
得出	-8859
得慌	-8860
徘徊	-8861
心口	-8862
心大	-8863
心意	-8864
忍气	-8865
忖道	-8866
忙来	-8867
忧闷	-8868
快乐	-8869
怀着	-8870
怎不	-8871
怕我	-8872
思念	-8873
怠慢	-8874
性的	-8875
总未	-8876
恐人	-8877
恰值	-8878
恹恹	-8879
恼我	-8880
情儿	-8881
情思	-8882
惟恐	-8883
惯的	-8884
想他	-8885
感叹	-8886
戏来	-8887
成人	-8888
我从	-8889
我偏	-8890
我同	-8891
我所	-8892
我更	-8893
我爱	-8894
我算	-8895
房地	-8896
所谓	-8897
手的	-8898
才往	-8899
才敢	-8900
才貌	-8901
打我	-8902
托生	-8903
扣门	-8904
找你	-8905
找出	-8906
找她	-8907
折变	-8908
护庇	-8909
护着	-8910
抬了	-8911
抬来	-8912
抬起	-8913
拘束	-8914
拜见	-8915
拣那	-8916
拦着	-8917
拦阻	-8918
拷问	-8919
拿话	-8920
拿进	-8921
挪到	-8922
挽着	-8923
换衣	-8924
捶着	-8925
掌管	-8926
接二	-8927
接到	-8928
接风	-8929
推开	-8930
推让	-8931
推门	-8932
掩埋	-8933
掩门	-8934
搬出	-8935
摇手	-8936
摘下	-8937
攒盒	-8938
收的	-8939
改作	-8940
放出	-8941
放屁	-8942
故典	-8943
效验	-8944
敢说	-8945
散时	-8946
数儿	-8947
数目	-8948
文翔	-8949
施主	-8950
旁人	-8951
无二	-8952
无力	-8953
无地	-8954
无眠	-8955
无聊	-8956
无计	-8957
既要	-8958
日用	-8959
旧例	-8960
旧路	-8961
早把	-8962
春尽	-8963
春风	-8964
是亲	-8965
更甚	-8966
最妙	-8967
有冤	-8968
有那	-8969
服毒	-8970
木头	-8971
未得	-8972
本府	-8973
杂种	-8974
来京	-8975
来去	-8976
来打	-8977
来送	-8978
杯盘	-8979
杯酒	-8980
松柏	-8981
枕霞	-8982
果菜	-8983
果觉	-8984
查点	-8985
样的	-8986
根下	-8987
桃红	-8988
楼台	-8989
楼阁	-8990
槛外	-8991
横行	-8992
欣然	-8993
正和	-8994
正当	-8995
正殿	-8996
此去	-8997
此来	-8998
每一	-8999
每常	-9000
比着	-9001
气血	-9002
江西	-9003
沐盆	-9004
没心	-9005
没甚	-9006
没钱	-9007
泄漏	-9008
泥金	-9009
泼皮	-9010
洁净	-9011
派他	-9012
派我	-9013
清了	-9014
清明	-9015
清晨	-9016
滋味	-9017
满地	-9018
满怀	-9019
满眼	-9020
灌溉	-9021
火光	-9022
灭了	-9023
灯来	-9024
灯烛	-9025
灵秀	-9026
炕前	-9027
点点	-9028
点着	-9029
烂的	-9030
烦了	-9031
烦难	-9032
烹茶	-9033
然自	-9034
燕子	-9035
爱如	-9036
犯官	-9037
犹豫	-9038
狠了	-9039
狠命	-9040
献勤	-9041
玩物	-9042
现任	-9043
珠宝	-9044
理事	-9045
理家	-9046
理的	-9047
琐碎	-9048
甚觉	-9049
甜香	-9050
生前	-9051
生疏	-9052
用药	-9053
畏惧	-9054
疼了	-9055
病好	-9056
病重	-9057
痰迷	-9058
癞头	-9059
的又	-9060
的寿	-9061
的就	-9062
的打	-9063
的福	-9064
的闹	-9065
的面	-9066
皆无	-9067
皱眉	-9068
盆内	-9069
盘内	-9070
盘缠	-9071
盘费	-9072
盥手	-9073
目下	-9074
直竖	-9075
直等	-9076
相会	-9077
相离	-9078
相验	-9079
看人	-9080
看园	-9081
看的	-9082
真话	-9083
眼力	-9084
眼错	-9085
睡在	-9086
睡得	-9087
瞧时	-9088
知书	-9089
知会	-9090
石榴	-9091
碗来	-9092
碧月	-9093
礼来	-9094
神色	-9095
福的	-9096
私心	-9097
秋天	-9098
秋水	-9099
秦业	-9100
稀罕	-9101
稿子	-9102
空门	-9103
穿红	-9104
立等	-9105
立足	-9106
竭力	-9107
笼子	-9108
筵宴	-9109
算一	-9110
算了	-9111
算盘	-9112
算算	-9113
管保	-9114
箭袖	-9115
簪环	-9116
簪菊	-9117
簸箩	-9118
粗细	-9119
粮道	-9120
素常	-9121
素服	-9122
紫涨	-9123
累赘	-9124
纸马	-9125
终日	-9126
结实	-9127
给谁	-9128
络绎	-9129
绝色	-9130
绡帐	-9131
绮霰	-9132
缀锦	-9133
罕事	-9134
罚的	-9135
罪名	-9136
美女	-9137
翻出	-9138
老三	-9139
老舅	-9140
老赵	-9141
而为	-9142
职名	-9143
胆量	-9144
背心	-9145
胡诌	-9146
脸儿	-9147
膀臂	-9148
臊了	-9149
臊的	-9150
自受	-9151
自向	-9152
自回	-9153
至大	-9154
良民	-9155
色色	-9156
花为	-9157
花园	-9158
花朵	-9159
花瓣	-9160
苦的	-9161
草草	-9162
荡荡	-9163
荣国	-9164
荣耀	-9165
荫堂	-9166
药死	-9167
荳官	-9168
蕉叶	-9169
虽系	-9170
蝉儿	-9171
行止	-9172
行的	-9173
衔玉	-9174
衣包	-9175
衣锦	-9176
补天	-9177
表字	-9178
衰草	-9179
袄子	-9180
被他	-9181
裁缝	-9182
装病	-9183
裤子	-9184
西子	-9185
西瓜	-9186
要一	-9187
要回	-9188
要娶	-9189
要水	-9190
要睡	-9191
见一	-9192
见效	-9193
见有	-9194
见这	-9195
觉着	-9196
讲书	-9197
许他	-9198
许你	-9199
设一	-9200
识字	-9201
词句	-9202
诗书	-9203
诗云	-9204
诚心	-9205
语的	-9206
语音	-9207
误伤	-9208
说亲	-9209
请旨	-9210
诸如	-9211
诽谤	-9212
谁呢	-9213
谁还	-9214
谎话	-9215
财主	-9216
贾菖	-9217
贾菱	-9218
赏脸	-9219
赏鉴	-9220
赖升	-9221
赤金	-9222
赦老	-9223
赫赫	-9224
走呢	-9225
趔趄	-9226
跛足	-9227
跟从	-9228
蹲着	-9229
身分	-9230
身死	-9231
躲的	-9232
车轿	-9233
转悲	-9234
软帘	-9235
轻巧	-9236
输赢	-9237
过得	-9238
过意	-9239
迎头	-9240
还乡	-9241
还提	-9242
还来	-9243
还欲	-9244
还赖	-9245
这要	-9246
进贡	-9247
远路	-9248
退了	-9249
退去	-9250
退婚	-9251
退步	-9252
送他	-9253
送她	-9254
送往	-9255
送给	-9256
遍了	-9257
道场	-9258
道路	-9259
那怕	-9260
那种	-9261
那话	-9262
酒令	-9263
酒吃	-9264
酒已	-9265
酒果	-9266
酒碗	-9267
酒面	-9268
酒饭	-9269
里地	-9270
重阳	-9271
金彩	-9272
金线	-9273
钩子	-9274
长篇	-9275
长行	-9276
门客	-9277
问去	-9278
闲人	-9279
闻知	-9280
阴骘	-9281
陪侍	-9282
难禁	-9283
雇了	-9284
雪芹	-9285
露了	-9286
青天	-9287
静的	-9288
革去	-9289
革职	-9290
鞋袜	-9291
韶华	-9292
顺便	-9293
顺口	-9294
顽耍	-9295
预先	-9296
领牌	-9297
风情	-9298
风炉	-9299
飞跑	-9300
香怜	-9301
香珠	-9302
骂了	-9303
骂人	-9304
高低	-9305
鹿肉	-9306
黑了	-9307
▁惜春	-9308
▁注云	-9309
▁薛蝌	-9310
▁迎春	-9311
▁闲言	-9312
一件是	-9313
一处吃	-9314
一大惊	-9315
一定的	-9316
一样是	-9317
一片声	-9318
一进门	-9319
三五日	-9320
三日后	-9321
上好的	-9322
上的人	-9323
不下来	-9324
不可笑	-9325
不告诉	-9326
不如意	-9327
不尊重	-9328
不干净	-9329
不得主	-9330
不是个	-9331
不是呢	-9332
不是要	-9333
不算外	-9334
不管了	-9335
不管事	-9336
且别说	-9337
两只手	-9338
两杯酒	-9339
丫头来	-9340
为不可	-9341
也不许	-9342
也不该	-9343
也不迟	-9344
也是要	-9345
也有送	-9346
也没个	-9347
也着实	-9348
了一包	-9349
了一年	-9350
了一首	-9351
了下去	-9352
了两遍	-9353
了他去	-9354
了几声	-9355
了她们	-9356
了她的	-9357
了我去	-9358
了我来	-9359
了我罢	-9360
了手脚	-9361
了进来	-9362
了银子	-9363
二人也	-9364
二人在	-9365
二爷呢	-9366
二百两	-9367
二百挂	-9368
二门前	-9369
五儿道	-9370
亦不可	-9371
亦可以	-9372
人去了	-9373
人家儿	-9374
人家有	-9375
人家来	-9376
什么来	-9377
什么话	-9378
今儿我	-9379
从何处	-9380
他们家	-9381
他们都	-9382
他嫂子	-9383
他心里	-9384
他来了	-9385
件东西	-9386
众人又	-9387
众人方	-9388
众人问	-9389
众子侄	-9390
似一天	-9391
作文章	-9392
你一说	-9393
你不依	-9394
你不信	-9395
你不要	-9396
你且说	-9397
你们又	-9398
你们快	-9399
你又来	-9400
你叔叔	-9401
你只说	-9402
你只顾	-9403
你听见	-9404
你带了	-9405
你明儿	-9406
你的心	-9407
你的话	-9408
你自然	-9409
你舅舅	-9410
你说了	-9411
你起来	-9412
你过来	-9413
你还要	-9414
你这里	-9415
便告辞	-9416
便要走	-9417
便走了	-9418
便走到	-9419
便转身	-9420
便递与	-9421
倒不大	-9422
倒不要	-9423
倒罢了	-9424
倒说我	-9425
倒还是	-9426
儿子的	-9427
兴兴头	-9428
其词曰	-9429
再不许	-9430
再说罢	-9431
冯公子	-9432
况且又	-9433
况且我	-9434
冷清清	-9435
凤哥儿	-9436
出家的	-9437
出来呢	-9438
出门的	-9439
分明是	-9440
初三日	-9441
初二日	-9442
别多心	-9443
别说是	-9444
到一处	-9445
到今日	-9446
到凤姐	-9447
到园中	-9448
前日我	-9449
剩下的	-9450
十二钱	-9451
十五回	-9452
十六回	-9453
却不见	-9454
却也是	-9455
原不曾	-9456
原有些	-9457
去不去	-9458
去不成	-9459
去罢了	-9460
去逛逛	-9461
又可以	-9462
又吃了	-9463
又咳嗽	-9464
又得了	-9465
又指着	-9466
又有个	-9467
取了来	-9468
只不好	-9469
只剩了	-9470
只剩得	-9471
只可惜	-9472
只怕连	-9473
只是她	-9474
只是要	-9475
只说是	-9476
叫人来	-9477
叫奴才	-9478
叫紫鹃	-9479
叫雪雁	-9480
可好了	-9481
可好些	-9482
可是我	-9483
吃不了	-9484
吃不住	-9485
吃了罢	-9486
吃了药	-9487
吃什么	-9488
吃毕饭	-9489
吃饭罢	-9490
各处的	-9491
听不见	-9492
听宝玉	-9493
听我说	-9494
听见过	-9495
周大娘	-9496
命小厮	-9497
和奶奶	-9498
和姑娘	-9499
咱们且	-9500
咱们先	-9501
咱们是	-9502
哪一处	-9503
哪去了	-9504
商议着	-9505
喜欢了	-9506
喜欢道	-9507
喝一钟	-9508
嘱咐你	-9509
回复了	-9510
回头道	-9511
回廊上	-9512
因又说	-9513
因想着	-9514
因闻得	-9515
园中来	-9516
在宝钗	-9517
在家时	-9518
在怀内	-9519
在房里	-9520
在手中	-9521
在自己	-9522
夏婆子	-9523
夏家的	-9524
多吃了	-9525
多少钱	-9526
大安了	-9527
太多了	-9528
太爷们	-9529
女人来	-9530
奶妈子	-9531
她不是	-9532
她们就	-9533
她姊妹	-9534
她来了	-9535
她进来	-9536
她那里	-9537
好大夫	-9538
好嫂子	-9539
好意思	-9540
如今听	-9541
如今这	-9542
如何是	-9543
妙师父	-9544
姐儿们	-9545
姑娘来	-9546
孙行者	-9547
宁国公	-9548
安慰她	-9549
宝哥哥	-9550
宝玉不	-9551
宝玉已	-9552
宝钗来	-9553
将昨日	-9554
将此事	-9555
将黛玉	-9556
小祖宗	-9557
就有些	-9558
就死了	-9559
就过去	-9560
就这么	-9561
屋里来	-9562
岂不比	-9563
带了人	-9564
带累了	-9565
平儿便	-9566
年月日	-9567
年轻的	-9568
并不知	-9569
床沿上	-9570
弄这个	-9571
弯着腰	-9572
当真的	-9573
往前去	-9574
往荣府	-9575
得出来	-9576
得十分	-9577
得罪人	-9578
心下暗	-9579
心中一	-9580
心里很	-9581
忘不了	-9582
忘记了	-9583
忙上前	-9584
忙上去	-9585
忙联道	-9586
快回去	-9587
快回来	-9588
念佛道	-9589
念过的	-9590
忽听得	-9591
忽然又	-9592
怪冷的	-9593
总没有	-9594
恨不能	-9595
悲喜交	-9596
成了个	-9597
我一生	-9598
我也有	-9599
我们才	-9600
我原要	-9601
我听听	-9602
我回来	-9603
我天天	-9604
我就是	-9605
我才刚	-9606
我昨日	-9607
我还不	-9608
我问你	-9609
所以没	-9610
打发她	-9611
找宝玉	-9612
把你的	-9613
把平儿	-9614
把昨儿	-9615
折变了	-9616
抱厦内	-9617
担不是	-9618
拍着手	-9619
拿了两	-9620
挂着一	-9621
提起来	-9622
摇头说	-9623
摇头道	-9624
教给我	-9625
斟了酒	-9626
新来的	-9627
方不负	-9628
方起身	-9629
方进来	-9630
日便是	-9631
早知道	-9632
时候了	-9633
明知是	-9634
有体面	-9635
有的是	-9636
服侍我	-9637
来回我	-9638
柳嫂子	-9639
欢天喜	-9640
歇歇儿	-9641
正经人	-9642
正经的	-9643
正色道	-9644
死是活	-9645
比往常	-9646
毛半仙	-9647
毛病儿	-9648
求老爷	-9649
混说了	-9650
湘云等	-9651
满嘴里	-9652
火上浇	-9653
然后方	-9654
父母早	-9655
狐媚子	-9656
玫瑰露	-9657
珍大哥	-9658
琏二叔	-9659
甄家的	-9660
甄老爷	-9661
生分了	-9662
生气了	-9663
略有些	-9664
略略的	-9665
疼宝玉	-9666
疼我了	-9667
白海棠	-9668
的人么	-9669
的人也	-9670
的人呢	-9671
的人品	-9672
的声音	-9673
的心肠	-9674
的情分	-9675
的是谁	-9676
的脾气	-9677
的规矩	-9678
相好的	-9679
眉开眼	-9680
看不过	-9681
真是个	-9682
着了凉	-9683
着二爷	-9684
着急道	-9685
瞧一瞧	-9686
知道呢	-9687
石头记	-9688
秦相公	-9689
秦钟道	-9690
穿衣服	-9691
站不住	-9692
笑劝道	-9693
笑答道	-9694
笑话我	-9695
第二个	-9696
糊涂了	-9697
红香圃	-9698
给人家	-9699
给姑娘	-9700
绢包儿	-9701
老亲翁	-9702
老妈妈	-9703
耽搁了	-9704
肚子里	-9705
胡君荣	-9706
膝跪下	-9707
花了钱	-9708
若是他	-9709
若没有	-9710
若说我	-9711
荣国公	-9712
蒙圣恩	-9713
被宝玉	-9714
袭人来	-9715
西厢记	-9716
要走时	-9717
见了这	-9718
见他们	-9719
见平儿	-9720
认真了	-9721
让了坐	-9722
说了些	-9723
说句话	-9724
说明了	-9725
说笑话	-9726
请凤姐	-9727
请安去	-9728
谁知这	-9729
调唆的	-9730
贾宝玉	-9731
贾政便	-9732
贾政因	-9733
贾政的	-9734
贾母与	-9735
贾母问	-9736
贾琏已	-9737
赖大家	-9738
赶不上	-9739
起诗社	-9740
跑了来	-9741
跟了来	-9742
跟我来	-9743
过一次	-9744
过几次	-9745
过去罢	-9746
过没有	-9747
过生日	-9748
过这边	-9749
迎丫头	-9750
还不如	-9751
还不算	-9752
还不能	-9753
还是我	-9754
还有个	-9755
这一天	-9756
这上头	-9757
这事来	-9758
这些小	-9759
这叫作	-9760
这叫做	-9761
这屋子	-9762
这是谁	-9763
这正是	-9764
连一个	-9765
连忙将	-9766
连这个	-9767
送了一	-9768
送宝玉	-9769
造次了	-9770
那些小	-9771
那会子	-9772
那先生	-9773
那几年	-9774
那原是	-9775
那去了	-9776
那知道	-9777
那秦钟	-9778
那贾琏	-9779
那里是	-9780
都不肯	-9781
都去了	-9782
都忘了	-9783
配不上	-9784
里去了	-9785
金银锞	-9786
门上人	-9787
门子道	-9788
闭了眼	-9789
问宝玉	-9790
问问他	-9791
闺阁中	-9792
饮一杯	-9793
默默的	-9794
黛玉也	-9795
黛玉只	-9796
黛玉方	-9797
▁一面说	-9798
▁宝玉因	-9799
▁正闹着	-9800
▁王熙凤	-9801
▁贾政道	-9802
▁赵姨娘	-9803
▁那宝玉	-9804
一个丫鬟	-9805
一五一十	-9806
一件东西	-9807
一家子的	-9808
一年半载	-9809
一早起来	-9810
一百二十	-9811
上了年纪	-9812
不似往日	-9813
不待说完	-9814
不必细述	-9815
不敢惊动	-9816
不敢擅入	-9817
不曾听见	-9818
不知何事	-9819
不知有何	-9820
不见宝钗	-9821
不过一时	-9822
不过是些	-9823
与凤姐儿	-9824
与邢夫人	-9825
两个丫鬟	-9826
为什么要	-9827
主意已定	-9828
之孙世袭	-9829
也不理他	-9830
也不认得	-9831
也就好了	-9832
也就完了	-9833
了一个人	-9834
了一大跳	-9835
二两银子	-9836
二奶奶说	-9837
亲眼见的	-9838
人命官司	-9839
什么原故	-9840
什么要紧	-9841
从古至今	-9842
他们两个	-9843
众人见他	-9844
何苦来呢	-9845
你不过是	-9846
你们听听	-9847
你作什么	-9848
你这么个	-9849
便走上来	-9850
几个小厮	-9851
凤姐儿也	-9852
凤姐儿便	-9853
凤姐听见	-9854
出了园门	-9855
出了房门	-9856
出了院门	-9857
到了那里	-9858
勉强笑道	-9859
北静郡王	-9860
千恩万谢	-9861
去就是了	-9862
又听说道	-9863
只得出来	-9864
只是不肯	-9865
只管放心	-9866
只见妙玉	-9867
只见平儿	-9868
叫人笑话	-9869
叫他进来	-9870
可有什么	-9871
史大姑娘	-9872
吃一大惊	-9873
吃了一口	-9874
吃了一碗	-9875
吃酒赌钱	-9876
向宝钗道	-9877
听了一听	-9878
听到那里	-9879
听她的话	-9880
听见贾母	-9881
告诉她道	-9882
和人说话	-9883
和姑娘们	-9884
咭咭呱呱	-9885
哪里的话	-9886
哭起来了	-9887
商议商议	-9888
喘吁吁的	-9889
喜欢起来	-9890
回王夫人	-9891
在哪里呢	-9892
坐了一会	-9893
坐在炕上	-9894
坐在那里	-9895
士隐听了	-9896
多大年纪	-9897
大家商议	-9898
太太说了	-9899
太监出来	-9900
头上戴着	-9901
女孩儿们	-9902
如今老爷	-9903
如今还是	-9904
如此如此	-9905
如此说了	-9906
妙玉笑道	-9907
姊妹们都	-9908
姑娘怎么	-9909
婆子笑道	-9910
宝玉在旁	-9911
宝玉忙问	-9912
宝玉的手	-9913
宝玉看见	-9914
宝玉笑着	-9915
宝玉见问	-9916
宝钗见他	-9917
就不见了	-9918
岫烟笑道	-9919
左思右想	-9920
已进来了	-9921
带了宝玉	-9922
平儿听说	-9923
并不是我	-9924
当槽儿的	-9925
往那里去	-9926
得罪了你	-9927
心中早已	-9928
怎么不来	-9929
怎么这么	-9930
怔了半天	-9931
悄悄的道	-9932
悄悄说道	-9933
想不到的	-9934
想出一个	-9935
想到那里	-9936
惹人笑话	-9937
懂得什么	-9938
成个什么	-9939
我不过是	-9940
我们两个	-9941
我们那里	-9942
我有什么	-9943
打了一个	-9944
执意不从	-9945
抬头一看	-9946
拉他的手	-9947
据我看来	-9948
掌灯时分	-9949
探春听说	-9950
接了过来	-9951
接着说道	-9952
料理料理	-9953
方渐渐的	-9954
是个男人	-9955
有一个人	-9956
有一句话	-9957
有了这个	-9958
有凤来仪	-9959
朦胧睡去	-9960
未知何事	-9961
李嬷嬷道	-9962
林之孝道	-9963
果然如此	-9964
欢喜非常	-9965
泪如雨下	-9966
清客相公	-9967
父母兄弟	-9968
独自一个	-9969
疑惑起来	-9970
眼错不见	-9971
睡在床上	-9972
离了这里	-9973
稻香村来	-9974
穿了衣服	-9975
红玉听了	-9976
红玉笑道	-9977
细细的说	-9978
络绎不绝	-9979
老糊涂了	-9980
至晚饭后	-9981
花大姐姐	-9982
芳官笑道	-9983
莺儿笑道	-9984
薛蟠听了	-9985
袭人听说	-9986
见是宝玉	-9987
警幻仙子	-9988
让薛姨妈	-9989
话未说完	-9990
说了一句	-9991
说了两句	-9992
说了半天	-9993
说些闲话	-9994
说到那里	-9995
请医调治	-9996
谁不知道	-9997
谁知宝玉	-9998
贾政听说	-9999
贾政回家	-10000
贾母忙命	-10001
贾母高兴	-10002
贾环听了	-10003
贾芸进来	-10004
赌气去了	-10005
跪在地下	-10006
躺在地下	-10007
辞了众人	-10008
辞了出来	-10009
迎春姊妹	-10010
这个丫头	-10011
这也奇了	-10012
这劳什子	-10013
这就是了	-10014
这是他们	-10015
这种人家	-10016
这里凤姐	-10017
这里的人	-10018
连老太太	-10019
那刘姥姥	-10020
那姑子道	-10021
那婆子道	-10022
都是好的	-10023
金星玻璃	-10024
雨村听了	-10025
预备下了	-10026
黛玉微微	-10027
黛玉的手	-10028
▁且说贾政	-10029
▁且说贾琏	-10030
▁李纨笑道	-10031
▁湘云笑道	-10032
▁话说宝玉	-10033
▁话说贾琏	-10034
不知怎么样	-10035
二十两银子	-10036
你这小蹄子	-10037
你那里知道	-10038
倘或老太太	-10039
冯紫英笑道	-10040
刚说到这里	-10041
到贾母那边	-10042
到那里去了	-10043
只管告诉我	-10044
吴新登家的	-10045
告诉老太太	-10046
回了老太太	-10047
姨太太那边	-10048
宝玉答应了	-10049
悄悄的说道	-10050
愿意不愿意	-10051
我竟不知道	-10052
我自有道理	-10053
打发人来请	-10054
打发小丫头	-10055
王夫人听说	-10056
王夫人房中	-10057
知道不知道	-10058
答应了出去	-10059
答应了出来	-10060
算不得什么	-10061
脸上过不去	-10062
说得满屋里	-10063
说的是什么	-10064
说笑了一回	-10065
越发得了意	-10066
这么说起来	-10067
这些丫头们	-10068
邢夫人那边	-10069
金陵十二钗	-10070
▁这里薛姨妈	-10071
与我什么相干	-10072
十二个女孩子	-10073
周瑞家的等人	-10074
巴不得一声儿	-10075
的话述了一遍	-10076
黛玉点点头儿	-10077
说得众人都笑了	-10078
!‘	-10079
’;	-10080
“,	-10081
“。	-10082
▁一	-10083
▁刚	-10084
▁咏	-10085
▁情	-10086
▁王	-10087
▁薛	-10088
▁话	-10089
。(	-10090
一世	-10091
一丸	-10092
一似	-10093
一别	-10094
一吹	-10095
一岁	-10096
一扭	-10097
一提	-10098
一摸	-10099
一斤	-10100
一查	-10101
一歪	-10102
一洗	-10103
一病	-10104
一脸	-10105
一走	-10106
一跺	-10107
丁忧	-10108
七月	-10109
万万	-10110
三万	-10111
三下	-10112
三尺	-10113
三步	-10114
上个	-10115
上乱	-10116
上祭	-10117
上首	-10118
上髟	-10119
下作	-10120
下炕	-10121
下药	-10122
下赞	-10123
下车	-10124
不令	-10125
不做	-10126
不净	-10127
不凡	-10128
不加	-10129
不和	-10130
不嫁	-10131
不实	-10132
不平	-10133
不幸	-10134
不弃	-10135
不归	-10136
不念	-10137
不把	-10138
不挑	-10139
不日	-10140
不的	-10141
不穷	-10142
不落	-10143
不虚	-10144
不认	-10145
不遂	-10146
不醒	-10147
不难	-10148
且住	-10149
世俗	-10150
两夜	-10151
两宅	-10152
两年	-10153
两旁	-10154
两步	-10155
两溜	-10156
两王	-10157
两的	-10158
两腮	-10159
两间	-10160
个信	-10161
临期	-10162
临风	-10163
为事	-10164
为喜	-10165
为婚	-10166
为要	-10167
主张	-10168
举业	-10169
久已	-10170
之前	-10171
之属	-10172
之德	-10173
之父	-10174
之盛	-10175
之谈	-10176
之道	-10177
乐业	-10178
乖僻	-10179
乘凉	-10180
九龙	-10181
也会	-10182
也免	-10183
也学	-10184
也定	-10185
也常	-10186
也必	-10187
也正	-10188
也竟	-10189
也认	-10190
乡里	-10191
书云	-10192
书信	-10193
书香	-10194
买来	-10195
乳名	-10196
了又	-10197
了结	-10198
了腰	-10199
了茶	-10200
争奈	-10201
二三	-10202
二分	-10203
二层	-10204
二首	-10205
于世	-10206
于他	-10207
于学	-10208
云外	-10209
云散	-10210
五鼓	-10211
些好	-10212
些微	-10213
些须	-10214
亦发	-10215
亦因	-10216
亦皆	-10217
产业	-10218
京营	-10219
亮了	-10220
亲来	-10221
人已	-10222
人所	-10223
人是	-10224
什物	-10225
仆妇	-10226
今岁	-10227
今晚	-10228
仍以	-10229
仍回	-10230
仍复	-10231
仍往	-10232
从后	-10233
从容	-10234
仕宦	-10235
他娘	-10236
他年	-10237
他才	-10238
他有	-10239
他要	-10240
仙境	-10241
仙师	-10242
仙长	-10243
令尊	-10244
令盆	-10245
以下	-10246
以手	-10247
任他	-10248
份儿	-10249
份子	-10250
休提	-10251
众客	-10252
众贼	-10253
会做	-10254
会儿	-10255
传到	-10256
传奇	-10257
传旨	-10258
传至	-10259
传齐	-10260
伤悲	-10261
伤情	-10262
伴着	-10263
但愿	-10264
体己	-10265
何物	-10266
作事	-10267
作何	-10268
作别	-10269
作得	-10270
作文	-10271
你在	-10272
你干	-10273
你拿	-10274
你猜	-10275
使钱	-10276
供着	-10277
供菊	-10278
依你	-10279
依命	-10280
侯的	-10281
便传	-10282
便到	-10283
便直	-10284
便见	-10285
俏丽	-10286
俗套	-10287
修炼	-10288
倒招	-10289
倒替	-10290
假作	-10291
假说	-10292
偕鸾	-10293
停妥	-10294
偷偷	-10295
催他	-10296
儿笑	-10297
兄嫂	-10298
先用	-10299
先看	-10300
先说	-10301
先请	-10302
光的	-10303
免了	-10304
兜着	-10305
入园	-10306
入殓	-10307
入社	-10308
全当	-10309
八两	-10310
公事	-10311
公公	-10312
公案	-10313
公然	-10314
六个	-10315
其不	-10316
其为	-10317
内相	-10318
内阁	-10319
再别	-10320
再寻	-10321
再没	-10322
再闹	-10323
写个	-10324
写经	-10325
冬天	-10326
冲喜	-10327
况又	-10328
冷香	-10329
净室	-10330
净虚	-10331
几两	-10332
几席	-10333
几遍	-10334
凡心	-10335
凡百	-10336
凳上	-10337
凶犯	-10338
凸碧	-10339
凹晶	-10340
出名	-10341
出戏	-10342
出挑	-10343
出殡	-10344
出言	-10345
出过	-10346
刀子	-10347
分中	-10348
分别	-10349
分外	-10350
刘氏	-10351
则又	-10352
则已	-10353
刚欲	-10354
利息	-10355
别混	-10356
别理	-10357
到京	-10358
刻丝	-10359
前次	-10360
前番	-10361
前程	-10362
前行	-10363
剪了	-10364
剪子	-10365
办办	-10366
办的	-10367
动人	-10368
劳碌	-10369
势派	-10370
十回	-10371
午觉	-10372
半路	-10373
单为	-10374
单是	-10375
南北	-10376
占了	-10377
卧房	-10378
危急	-10379
即事	-10380
即景	-10381
却有	-10382
却比	-10383
卸了	-10384
去作	-10385
去和	-10386
去时	-10387
县里	-10388
又为	-10389
又回	-10390
又常	-10391
又念	-10392
又愧	-10393
又捧	-10394
又放	-10395
又许	-10396
又长	-10397
反来	-10398
反被	-10399
反要	-10400
发出	-10401
发签	-10402
取便	-10403
变个	-10404
叠起	-10405
另作	-10406
只凭	-10407
只刚	-10408
只将	-10409
只手	-10410
只拿	-10411
只爱	-10412
只盼	-10413
叫去	-10414
叫把	-10415
叫的	-10416
叫起	-10417
叫过	-10418
叫那	-10419
可喜	-10420
可定	-10421
可敬	-10422
可施	-10423
可曾	-10424
可羡	-10425
可谓	-10426
台下	-10427
右边	-10428
司官	-10429
吃杯	-10430
各式	-10431
各散	-10432
各项	-10433
合同	-10434
合宅	-10435
合族	-10436
合着	-10437
吉时	-10438
吊着	-10439
同我	-10440
名利	-10441
吐了	-10442
君子	-10443
含着	-10444
听去	-10445
听时	-10446
听过	-10447
吹灯	-10448
呆性	-10449
告道	-10450
员外	-10451
和衣	-10452
咽住	-10453
哀求	-10454
哄然	-10455
响动	-10456
哪怕	-10457
哭到	-10458
哭呢	-10459
哭啼	-10460
唤他	-10461
唬人	-10462
唯唯	-10463
善哉	-10464
喜了	-10465
喝令	-10466
喝声	-10467
喳喳	-10468
嗓子	-10469
嗔着	-10470
嘴唇	-10471
嚷着	-10472
四百	-10473
回想	-10474
围绕	-10475
圆房	-10476
圆的	-10477
土物	-10478
在坐	-10479
在手	-10480
在袖	-10481
在路	-10482
在身	-10483
地灭	-10484
坐卧	-10485
填词	-10486
声气	-10487
多嘴	-10488
多嫌	-10489
多时	-10490
多派	-10491
多添	-10492
多记	-10493
多走	-10494
夜已	-10495
大士	-10496
大声	-10497
大赦	-10498
大车	-10499
大闹	-10500
天机	-10501
天缘	-10502
天诛	-10503
央道	-10504
夹着	-10505
奇异	-10506
奇道	-10507
奏闻	-10508
奢华	-10509
女工	-10510
奴仆	-10511
奴家	-10512
她亲	-10513
她再	-10514
她在	-10515
她既	-10516
她若	-10517
好亲	-10518
好诗	-10519
如雷	-10520
妙在	-10521
妞儿	-10522
妥了	-10523
姿色	-10524
娇嫩	-10525
娇生	-10526
娈童	-10527
娶的	-10528
嫁了	-10529
嫁妆	-10530
字儿	-10531
字来	-10532
学业	-10533
学些	-10534
学过	-10535
它来	-10536
安放	-10537
完备	-10538
完结	-10539
官中	-10540
定例	-10541
定夺	-10542
定数	-10543
实系	-10544
害我	-10545
家书	-10546
家庭	-10547
家有	-10548
家生	-10549
家资	-10550
容他	-10551
寄居	-10552
寅年	-10553
寒毛	-10554
对得	-10555
对菊	-10556
对词	-10557
寻个	-10558
导引	-10559
射覆	-10560
将要	-10561
尊兄	-10562
小字	-10563
小杌	-10564
小王	-10565
小生	-10566
小衣	-10567
少有	-10568
少的	-10569
尘世	-10570
尘埃	-10571
尚且	-10572
尚早	-10573
就为	-10574
就够	-10575
就给	-10576
尽孝	-10577
尾巴	-10578
展开	-10579
属员	-10580
山门	-10581
岂是	-10582
左手	-10583
已摆	-10584
帐幔	-10585
席的	-10586
常在	-10587
幔子	-10588
平了	-10589
年年	-10590
年幼	-10591
年终	-10592
年高	-10593
并将	-10594
庄头	-10595
床来	-10596
应个	-10597
底子	-10598
底细	-10599
店里	-10600
庙内	-10601
府尹	-10602
开发	-10603
开销	-10604
弄着	-10605
引人	-10606
强些	-10607
强嘴	-10608
归了	-10609
归入	-10610
归省	-10611
当是	-10612
当真	-10613
形于	-10614
形状	-10615
彩缎	-10616
影响	-10617
往来	-10618
很该	-10619
徒弟	-10620
得是	-10621
得闲	-10622
心不	-10623
心净	-10624
心动	-10625
心头	-10626
心实	-10627
心气	-10628
心爱	-10629
心甚	-10630
心肝	-10631
志气	-10632
忘情	-10633
忙也	-10634
忙叫	-10635
忙至	-10636
忠义	-10637
忠顺	-10638
快打	-10639
念了	-10640
怎好	-10641
怎的	-10642
怎能	-10643
怜爱	-10644
思及	-10645
思忖	-10646
思想	-10647
急命	-10648
急道	-10649
性气	-10650
怯怯	-10651
恃强	-10652
恐他	-10653
恩爱	-10654
恰恰	-10655
悄向	-10656
悉皆	-10657
悟道	-10658
悬着	-10659
情意	-10660
惊讶	-10661
想个	-10662
愁闷	-10663
愈加	-10664
感戴	-10665
戏单	-10666
戏子	-10667
我往	-10668
我比	-10669
戥子	-10670
房上	-10671
所作	-10672
所见	-10673
所言	-10674
手脚	-10675
才叫	-10676
才歇	-10677
才算	-10678
打一	-10679
打人	-10680
打去	-10681
打破	-10682
执壶	-10683
扫了	-10684
扫兴	-10685
扶乩	-10686
扶柩	-10687
承认	-10688
抄去	-10689
把书	-10690
把人	-10691
把盏	-10692
把脚	-10693
抓起	-10694
投奔	-10695
投机	-10696
抚琴	-10697
报与	-10698
报仇	-10699
报信	-10700
报官	-10701
披了	-10702
抹额	-10703
抽屉	-10704
抽柴	-10705
担待	-10706
拆了	-10707
拉起	-10708
拍案	-10709
拜佛	-10710
拣了	-10711
拴着	-10712
拾起	-10713
拿个	-10714
拿几	-10715
拿大	-10716
拿车	-10717
拿过	-10718
挂念	-10719
按住	-10720
按品	-10721
按方	-10722
按时	-10723
挥霍	-10724
挪移	-10725
挺挺	-10726
换酒	-10727
掀开	-10728
掌上	-10729
排班	-10730
排解	-10731
探探	-10732
推病	-10733
掩着	-10734
掩面	-10735
揉搓	-10736
插着	-10737
搀着	-10738
搁着	-10739
搬运	-10740
携带	-10741
摆在	-10742
摆饭	-10743
摇着	-10744
摸着	-10745
撂下	-10746
撂在	-10747
撕掳	-10748
撵她	-10749
攒珠	-10750
支吾	-10751
收管	-10752
放去	-10753
放肆	-10754
故也	-10755
教他	-10756
教的	-10757
敢来	-10758
敬服	-10759
数日	-10760
数落	-10761
整衣	-10762
文的	-10763
斗草	-10764
斜阳	-10765
断然	-10766
新的	-10767
方去	-10768
方觉	-10769
无双	-10770
无语	-10771
无踪	-10772
无靠	-10773
时刻	-10774
昏愦	-10775
昔年	-10776
春秋	-10777
春色	-10778
春花	-10779
昭君	-10780
是旧	-10781
更奇	-10782
更要	-10783
曾有	-10784
曾经	-10785
最多	-10786
最好	-10787
月下	-10788
月亮	-10789
月洞	-10790
月白	-10791
有五	-10792
有他	-10793
有你	-10794
有势	-10795
有缘	-10796
望乞	-10797
望你	-10798
朝上	-10799
未便	-10800
未到	-10801
未回	-10802
未尝	-10803
未有	-10804
本钱	-10805
机关	-10806
条路	-10807
来拜	-10808
来见	-10809
松的	-10810
板壁	-10811
枕边	-10812
林家	-10813
果有	-10814
查出	-10815
查考	-10816
柳叶	-10817
柳条	-10818
柴胡	-10819
梆子	-10820
梦见	-10821
梦话	-10822
梨花	-10823
椅搭	-10824
榻前	-10825
檀云	-10826
次序	-10827
止步	-10828
止道	-10829
正册	-10830
正开	-10831
正气	-10832
正说	-10833
此亦	-10834
此案	-10835
死在	-10836
死得	-10837
死罪	-10838
母珠	-10839
每位	-10840
比人	-10841
比他	-10842
气受	-10843
水里	-10844
求饶	-10845
汉子	-10846
池边	-10847
汤药	-10848
汪汪	-10849
沉思	-10850
没话	-10851
没这	-10852
油蒙	-10853
治得	-10854
治罪	-10855
沾染	-10856
洋漆	-10857
活活	-10858
浮躁	-10859
涂地	-10860
深恨	-10861
混得	-10862
混闹	-10863
添补	-10864
清淡	-10865
清爽	-10866
清白	-10867
温存	-10868
温水	-10869
游戏	-10870
湿了	-10871
满纸	-10872
火来	-10873
点上	-10874
烟火	-10875
热天	-10876
热酒	-10877
焉得	-10878
熬了	-10879
熬的	-10880
爬灰	-10881
爷说	-10882
牌楼	-10883
牲口	-10884
犹在	-10885
狐狸	-10886
玉皇	-10887
王信	-10888
王兴	-10889
环哥	-10890
现世	-10891
现袭	-10892
珍哥	-10893
珠帘	-10894
琏二	-10895
琴儿	-10896
琴谱	-10897
甄府	-10898
甘露	-10899
生姜	-10900
生辰	-10901
用些	-10902
用人	-10903
用呢	-10904
画着	-10905
留我	-10906
留的	-10907
略放	-10908
疏远	-10909
疼的	-10910
病在	-10911
病根	-10912
痴了	-10913
白花	-10914
百姓	-10915
的信	-10916
的多	-10917
的官	-10918
的旧	-10919
的韵	-10920
皇天	-10921
皇帝	-10922
皮褥	-10923
盏茶	-10924
监察	-10925
盖上	-10926
盖碗	-10927
直瞪	-10928
相劝	-10929
相同	-10930
相待	-10931
相连	-10932
相陪	-10933
看出	-10934
看是	-10935
看这	-10936
真假	-10937
真要	-10938
眼内	-10939
眼皮	-10940
着那	-10941
睡的	-10942
睬他	-10943
瞧我	-10944
知心	-10945
知礼	-10946
知识	-10947
短叹	-10948
短少	-10949
短的	-10950
短袄	-10951
石子	-10952
砒霜	-10953
破题	-10954
硬朗	-10955
碍着	-10956
碎了	-10957
碗汤	-10958
碗箸	-10959
碰着	-10960
礼了	-10961
神了	-10962
神佛	-10963
神鬼	-10964
祭棚	-10965
祭的	-10966
祷告	-10967
禀帖	-10968
禀说	-10969
禄蠹	-10970
福了	-10971
离合	-10972
秋风	-10973
秋香	-10974
秦显	-10975
称为	-10976
称了	-10977
称呼	-10978
称扬	-10979
稳重	-10980
穿过	-10981
突的	-10982
窗上	-10983
窗内	-10984
立个	-10985
立着	-10986
竟大	-10987
竟将	-10988
竹椅	-10989
笑指	-10990
签上	-10991
算账	-10992
算起	-10993
管他	-10994
管我	-10995
管的	-10996
簌簌	-10997
簪缨	-10998
粗笨	-10999
粮食	-11000
糊了	-11001
糟塌	-11002
素与	-11003
素性	-11004
素昔	-11005
紧了	-11006
紫金	-11007
累丝	-11008
红晕	-11009
约有	-11010
,	-11011
。	-11012
了	-11013
不	-11014
的	-11015
一	-11016
“	-11017
”	-11018
:	-11019
来	-11020
道	-11021
人	-11022
是	-11023
说	-11024
我	-11025
这	-11026
你	-11027
去	-11028
着	-11029
也	-11030
玉	-11031
儿	-11032
有	-11033
宝	-11034
个	-11035
子	-11036
又	-11037
贾	-11038
里	-11039
们	-11040
见	-11041
只	-11042
得	-11043
那	-11044
太	-11045
便	-11046
好	-11047
?	-11048
他	-11049
在	-11050
笑	-11051
家	-11052
上	-11053
么	-11054
她	-11055
大	-11056
▁	-11057
姐	-11058
头	-11059
听	-11060
就	-11061
出	-11062
回	-11063
、	-11064
知	-11065
要	-11066
日	-11067
!	-11068
下	-11069
都	-11070
心	-11071
二	-11072
事	-11073
老	-11074
过	-11075
还	-11076
话	-11077
起	-11078
自	-11079
看	-11080
如	-11081
叫	-11082
没	-11083
两	-11084
到	-11085
母	-11086
些	-11087
时	-11088
之	-11089
今	-11090
小	-11091
问	-11092
因	-11093
奶	-11094
凤	-11095
等	-11096
娘	-11097
可	-11098
什	-11099
呢	-11100
忙	-11101
想	-11102
夫	-11103
面	-11104
才	-11105
爷	-11106
中	-11107
王	-11108
打	-11109
进	-11110
倒	-11111
此	-11112
罢	-11113
样	-11114
吃	-11115
和	-11116
正	-11117
姑	-11118
几	-11119
后	-11120
无	-11121
黛	-11122
天	-11123
然	-11124
为	-11125
前	-11126
再	-11127
意	-11128
门	-11129
别	-11130
走	-11131
外	-11132
丫	-11133
三	-11134
怎	-11135
袭	-11136
方	-11137
众	-11138
多	-11139
妹	-11140
生	-11141
已	-11142
作	-11143
明	-11144
将	-11145
身	-11146
以	-11147
把	-11148
何	-11149
气	-11150
钗	-11151
亲	-11152
‘	-11153
拿	-11154
与	-11155
手	-11156
给	-11157
’	-11158
十	-11159
坐	-11160
年	-11161
用	-11162
若	-11163
请	-11164
房	-11165
且	-11166
命	-11167
发	-11168
春	-11169
政	-11170
原	-11171
薛	-11172
所	-11173
花	-11174
妈	-11175
处	-11176
姨	-11177
先	-11178
平	-11179
瞧	-11180
己	-11181
谁	-11182
琏	-11183
边	-11184
管	-11185
住	-11186
内	-11187
女	-11188
死	-11189
送	-11190
连	-11191
早	-11192
会	-11193
告	-11194
至	-11195
香	-11196
东	-11197
往	-11198
西	-11199
虽	-11200
;	-11201
月	-11202
应	-11203
必	-11204
带	-11205
口	-11206
从	-11207
怕	-11208
声	-11209
四	-11210
当	-11211
未	-11212
放	-11213
能	-11214
林	-11215
分	-11216
安	-11217
点	-11218
云	-11219
却	-11220
眼	-11221
敢	-11222
开	-11223
理	-11224
喜	-11225
字	-11226
哥	-11227
李	-11228
金	-11229
地	-11230
书	-11231
红	-11232
成	-11233
情	-11234
病	-11235
竟	-11236
真	-11237
难	-11238
并	-11239
半	-11240
官	-11241
诉	-11242
咱	-11243
句	-11244
跟	-11245
向	-11246
各	-11247
姥	-11248
更	-11249
酒	-11250
白	-11251
婆	-11252
银	-11253
同	-11254
哭	-11255
湘	-11256
言	-11257
做	-11258
园	-11259
觉	-11260
使	-11261
五	-11262
紫	-11263
于	-11264
府	-11265
名	-11266
钱	-11267
定	-11268
快	-11269
少	-11270
珍	-11271
或	-11272
比	-11273
主	-11274
该	-11275
答	-11276
尤	-11277
探	-11278
睡	-11279
而	-11280
行	-11281
氏	-11282
经	-11283
件	-11284
闹	-11285
茶	-11286
屋	-11287
故	-11288
常	-11289
间	-11290
接	-11291
果	-11292
夜	-11293
饭	-11294
风	-11295
细	-11296
相	-11297
哪	-11298
脸	-11299
语	-11300
干	-11301
服	-11302
鹃	-11303
妇	-11304
张	-11305
找	-11306
衣	-11307
忽	-11308
既	-11309
神	-11310
其	-11311
本	-11312
邢	-11313
入	-11314
思	-11315
者	-11316
完	-11317
悄	-11318
水	-11319
色	-11320
但	-11321
算	-11322
急	-11323
底	-11324
解	-11325
动	-11326
鸳	-11327
次	-11328
皆	-11329
依	-11330
鸯	-11331
收	-11332
长	-11333
晚	-11334
赶	-11335
劝	-11336
亦	-11337
纨	-11338
世	-11339
信	-11340
许	-11341
提	-11342
院	-11343
对	-11344
似	-11345
拉	-11346
父	-11347
岂	-11348
晴	-11349
泪	-11350
玩	-11351
候	-11352
取	-11353
媳	-11354
念	-11355
散	-11356
实	-11357
百	-11358
素	-11359
冷	-11360
.	-11361
周	-11362
弟	-11363
清	-11364
留	-11365
性	-11366
雯	-11367
孩	-11368
兴	-11369
越	-11370
则	-11371
照	-11372
写	-11373
学	-11374
求	-11375
礼	-11376
兄	-11377
喝	-11378
菱	-11379
诗	-11380
反	-11381
尚	-11382
法	-11383
胡	-11384
站	-11385
第	-11386
待	-11387
新	-11388
物	-11389
蓉	-11390
像	-11391
烟	-11392
让	-11393
嘴	-11394
昨	-11395
偏	-11396
尽	-11397
旧	-11398
般	-11399
闲	-11400
巧	-11401
瑞	-11402
药	-11403
满	-11404
弄	-11405
曾	-11406
雨	-11407
刚	-11408
迎	-11409
嬷	-11410
毕	-11411
况	-11412
歇	-11413
近	-11414
孝	-11415
惜	-11416
传	-11417
随	-11418
刘	-11419
雪	-11420
姊	-11421
每	-11422
公	-11423
轻	-11424
乱	-11425
替	-11426
肯	-11427
恐	-11428
蟠	-11429
及	-11430
欢	-11431
秋	-11432
被	-11433
高	-11434
文	-11435
落	-11436
位	-11437
侍	-11438
仍	-11439
穿	-11440
八	-11441
受	-11442
现	-11443
领	-11444
荣	-11445
记	-11446
怪	-11447
光	-11448
认	-11449
妙	-11450
苦	-11451
令	-11452
爱	-11453
办	-11454
芳	-11455
齐	-11456
陪	-11457
伤	-11458
重	-11459
《	-11460
》	-11461
叔	-11462
厮	-11463
备	-11464
山	-11465
空	-11466
叹	-11467
闻	-11468
咐	-11469
很	-11470
骂	-11471
寻	-11472
跑	-11473
遂	-11474
戏	-11475
村	-11476
远	-11477
交	-11478
环	-11479
麝	-11480
疼	-11481
包	-11482
赏	-11483
芸	-11484
养	-11485
古	-11486
即	-11487
千	-11488
祖	-11489
景	-11490
灯	-11491
混	-11492
石	-11493
路	-11494
鬟	-11495
忘	-11496
合	-11497
甚	-11498
容	-11499
彩	-11500
略	-11501
直	-11502
立	-11503
静	-11504
活	-11505
指	-11506
流	-11507
秦	-11508
料	-11509
省	-11510
强	-11511
杯	-11512
非	-11513
马	-11514
全	-11515
欲	-11516
赦	-11517
舅	-11518
闷	-11519
贵	-11520
怨	-11521
桂	-11522
旁	-11523
首	-11524
转	-11525
总	-11526
热	-11527
乐	-11528
愿	-11529
极	-11530
谢	-11531
嫂	-11532
画	-11533
仙	-11534
紧	-11535
万	-11536
买	-11537
免	-11538
刻	-11539
奇	-11540
奴	-11541
琴	-11542
论	-11543
士	-11544
失	-11545
种	-11546
赖	-11547
体	-11548
呆	-11549
恩	-11550
罪	-11551
唤	-11552
柳	-11553
赵	-11554
钟	-11555
教	-11556
洗	-11557
错	-11558
凡	-11559
悲	-11560
商	-11561
孙	-11562
车	-11563
独	-11564
议	-11565
宁	-11566
派	-11567
端	-11568
息	-11569
吩	-11570
断	-11571
最	-11572
灵	-11573
量	-11574
唬	-11575
复	-11576
惊	-11577
目	-11578
鬼	-11579
宗	-11580
男	-11581
席	-11582
慢	-11583
通	-11584
场	-11585
系	-11586
终	-11587
渐	-11588
脚	-11589
窗	-11590
青	-11591
丢	-11592
单	-11593
司	-11594
婶	-11595
亏	-11596
望	-11597
禁	-11598
净	-11599
海	-11600
添	-11601
史	-11602
妃	-11603
抱	-11604
遇	-11605
顾	-11606
俗	-11607
烦	-11608
疑	-11609
背	-11610
报	-11611
趣	-11612
兰	-11613
国	-11614
查	-11615
梦	-11616
恨	-11617
数	-11618
步	-11619
保	-11620
岁	-11621
南	-11622
感	-11623
火	-11624
碗	-11625
乃	-11626
床	-11627
拾	-11628
换	-11629
珠	-11630
由	-11631
醒	-11632
雁	-11633
余	-11634
倘	-11635
题	-11636
炕	-11637
块	-11638
离	-11639
茗	-11640
引	-11641
摆	-11642
涂	-11643
佛	-11644
偷	-11645
递	-11646
工	-11647
微	-11648
治	-11649
宫	-11650
桌	-11651
辞	-11652
六	-11653
翠	-11654
致	-11655
幸	-11656
调	-11657
配	-11658
盘	-11659
京	-11660
够	-11661
客	-11662
诸	-11663
预	-11664
七	-11665
俱	-11666
关	-11667
暗	-11668
深	-11669
另	-11670
守	-11671
恼	-11672
娶	-11673
扶	-11674
推	-11675
纸	-11676
假	-11677
堂	-11678
遍	-11679
托	-11680
抬	-11681
草	-11682
莺	-11683
九	-11684
任	-11685
易	-11686
归	-11687
须	-11688
根	-11689
飞	-11690
害	-11691
止	-11692
精	-11693
设	-11694
计	-11695
退	-11696
逛	-11697
利	-11698
加	-11699
趁	-11700
侄	-11701
按	-11702
敬	-11703
莲	-11704
隐	-11705
朝	-11706
顺	-11707
纪	-11708
―	-11709
力	-11710
妥	-11711
跪	-11712
挂	-11713
称	-11714
化	-11715
帘	-11716
怜	-11717
拜	-11718
纹	-11719
代	-11720
共	-11721
差	-11722
戚	-11723
番	-11724
讲	-11725
初	-11726
改	-11727
烧	-11728
足	-11729
黄	-11730
异	-11731
破	-11732
造	-11733
嚷	-11734
福	-11735
结	-11736
虚	-11737
城	-11738
妻	-11739
笔	-11740
露	-11741
哄	-11742
监	-11743
辈	-11744
铺	-11745
帐	-11746
舍	-11747
低	-11748
条	-11749
横	-11750
犹	-11751
甄	-11752
费	-11753
蟾	-11754
棋	-11755
究	-11756
翻	-11757
委	-11758
忍	-11759
节	-11760
角	-11761
读	-11762
势	-11763
奈	-11764
度	-11765
除	-11766
变	-11767
绝	-11768
观	-11769
元	-11770
医	-11771
友	-11772
嘻	-11773
怀	-11774
轿	-11775
供	-11776
寒	-11777
捧	-11778
木	-11779
汤	-11780
饮	-11781
借	-11782
嫌	-11783
慌	-11784
承	-11785
顿	-11786
魂	-11787
功	-11788
折	-11789
痴	-11790
装	-11791
卖	-11792
暂	-11793
赌	-11794
跳	-11795
阴	-11796
北	-11797
联	-11798
词	-11799
凭	-11800
剩	-11801
善	-11802
耳	-11803
谈	-11804
值	-11805
支	-11806
犯	-11807
痛	-11808
短	-11809
索	-11810
缘	-11811
吓	-11812
姓	-11813
形	-11814
迟	-11815
含	-11816
巴	-11817
彼	-11818
贼	-11819
举	-11820
惟	-11821
枝	-11822
皮	-11823
讨	-11824
斗	-11825
牌	-11826
磕	-11827
蝌	-11828
华	-11829
唱	-11830
奉	-11831
左	-11832
师	-11833
庵	-11834
拣	-11835
撒	-11836
竖	-11837
绣	-11838
钏	-11839
庙	-11840
怡	-11841
私	-11842
蔷	-11843
隔	-11844
伺	-11845
摇	-11846
贴	-11847
遭	-11848
锦	-11849
味	-11850
封	-11851
影	-11852
楼	-11853
试	-11854
垂	-11855
旺	-11856
歹	-11857
登	-11858
招	-11859
概	-11860
纵	-11861
美	-11862
套	-11863
岫	-11864
菜	-11865
误	-11866
负	-11867
音	-11868
厅	-11869
愁	-11870
冯	-11871
准	-11872
妆	-11873
掩	-11874
树	-11875
游	-11876
猜	-11877
妨	-11878
尝	-11879
搁	-11880
曲	-11881
补	-11882
扇	-11883
挑	-11884
斟	-11885
燕	-11886
英	-11887
仗	-11888
例	-11889
寿	-11890
抄	-11891
油	-11892
约	-11893
藏	-11894
阳	-11895
食	-11896
务	-11897
嘱	-11898
懒	-11899
旨	-11900
粉	-11901
绿	-11902
久	-11903
屈	-11904
板	-11905
纱	-11906
针	-11907
馆	-11908
业	-11909
响	-11910
墨	-11911
富	-11912
帖	-11913
案	-11914
眉	-11915
线	-11916
醉	-11917
临	-11918
执	-11919
掷	-11920
机	-11921
潇	-11922
薄	-11923
裳	-11924
丧	-11925
叶	-11926
坏	-11927
居	-11928
径	-11929
罚	-11930
羞	-11931
脱	-11932
戴	-11933
摸	-11934
祭	-11935
血	-11936
识	-11937
躲	-11938
遣	-11939
阵	-11940
台	-11941
右	-11942
撞	-11943
碰	-11944
莫	-11945
规	-11946
鸡	-11947
伸	-11948
修	-11949
偶	-11950
社	-11951
竹	-11952
阁	-11953
骨	-11954
凉	-11955
劳	-11956
德	-11957
梳	-11958
盆	-11959
防	-11960
饶	-11961
双	-11962
围	-11963
宽	-11964
屏	-11965
悔	-11966
慰	-11967
据	-11968
梅	-11969
躺	-11970
靠	-11971
仁	-11972
兮	-11973
土	-11974
嫁	-11975
它	-11976
惯	-11977
昏	-11978
疯	-11979
肉	-11980
停	-11981
嗳	-11982
墙	-11983
怔	-11984
恰	-11985
拍	-11986
黑	-11987
傻	-11988
益	-11989
盖	-11990
赞	-11991
参	-11992
尊	-11993
帮	-11994
拦	-11995
操	-11996
部	-11997
吗	-11998
咽	-11999
央	-12000
扯	-12001
枕	-12002
特	-12003
盒	-12004
盛	-12005
菊	-12006
软	-12007
乡	-12008
侯	-12009
娇	-12010
消	-12011
温	-12012
著	-12013
避	-12014
圣	-12015
族	-12016
章	-12017
舌	-12018
伙	-12019
凑	-12020
切	-12021
历	-12022
庄	-12023
毛	-12024
班	-12025
腰	-12026
良	-12027
镜	-12028
架	-12029
矩	-12030
胆	-12031
迹	-12032
鲜	-12033
伴	-12034
君	-12035
整	-12036
罗	-12037
衙	-12038
丰	-12039
升	-12040
尘	-12041
座	-12042
廊	-12043
沉	-12044
睛	-12045
品	-12046
扫	-12047
搬	-12048
汗	-12049
穷	-12050
箱	-12051
象	-12052
账	-12053
韵	-12054
乎	-12055
争	-12056
僧	-12057
吵	-12058
吹	-12059
帕	-12060
愈	-12061
暖	-12062
模	-12063
禀	-12064
笼	-12065
表	-12066
迷	-12067
习	-12068
图	-12069
懂	-12070
椅	-12071
牙	-12072
疏	-12073
限	-12074
龙	-12075
宜	-12076
挨	-12077
星	-12078
桃	-12079
片	-12080
脉	-12081
藕	-12082
压	-12083
夏	-12084
室	-12085
掌	-12086
松	-12087
歪	-12088
编	-12089
丝	-12090
伏	-12091
吟	-12092
哟	-12093
幻	-12094
恶	-12095
惹	-12096
抢	-12097
携	-12098
撵	-12099
槛	-12100
灰	-12101
矣	-12102
粗	-12103
逼	-12104
鼓	-12105
催	-12106
搭	-12107
熟	-12108
缕	-12109
芹	-12110
野	-12111
仔	-12112
制	-12113
层	-12114
弱	-12115
披	-12116
痕	-12117
皇	-12118
胜	-12119
街	-12120
夹	-12121
抹	-12122
拘	-12123
淡	-12124
瞅	-12125
视	-12126
雅	-12127
顶	-12128
休	-12129
喊	-12130
滚	-12131
邪	-12132
乏	-12133
兼	-12134
勇	-12135
卧	-12136
吐	-12137
壁	-12138
寺	-12139
州	-12140
户	-12141
投	-12142
救	-12143
杀	-12144
泣	-12145
窝	-12146
职	-12147
谎	-12148
铁	-12149
颜	-12150
吊	-12151
啐	-12152
排	-12153
狠	-12154
篇	-12155
耽	-12156
裁	-12157
雀	-12158
册	-12159
县	-12160
号	-12161
奏	-12162
尼	-12163
曰	-12164
榻	-12165
淫	-12166
狗	-12167
珀	-12168
琥	-12169
瞒	-12170
罕	-12171
聚	-12172
脂	-12173
脑	-12174
荷	-12175
蒙	-12176
默	-12177
亭	-12178
冤	-12179
剪	-12180
嗽	-12181
器	-12182
团	-12183
坠	-12184
夺	-12185
恍	-12186
杂	-12187
漱	-12188
耍	-12189
臊	-12190
袄	-12191
酸	-12192
项	-12193
鲍	-12194
怒	-12195
拟	-12196
持	-12197
揭	-12198
搜	-12199
眷	-12200
抓	-12201
江	-12202
米	-12203
缎	-12204
缠	-12205
肠	-12206
儒	-12207
叙	-12208
呀	-12209
圆	-12210
巾	-12211
掉	-12212
期	-12213
棠	-12214
簪	-12215
糊	-12216
裙	-12217
貌	-12218
锁	-12219
霜	-12220
专	-12221
勉	-12222
勾	-12223
卷	-12224
察	-12225
悬	-12226
护	-12227
抽	-12228
挪	-12229
施	-12230
杏	-12231
欺	-12232
溜	-12233
田	-12234
睁	-12235
袖	-12236
厚	-12237
厨	-12238
咕	-12239
堆	-12240
堪	-12241
塞	-12242
宅	-12243
寂	-12244
愧	-12245
段	-12246
爬	-12247
碍	-12248
类	-12249
纳	-12250
警	-12251
赔	-12252
述	-12253
佳	-12254
倚	-12255
圈	-12256
惑	-12257
择	-12258
沿	-12259
泥	-12260
炉	-12261
瓶	-12262
碧	-12263
累	-12264
船	-12265
贫	-12266
赐	-12267
顽	-12268
典	-12269
呼	-12270
孽	-12271
宿	-12272
密	-12273
幼	-12274
弥	-12275
置	-12276
群	-12277
诧	-12278
输	-12279
阿	-12280
霞	-12281
亮	-12282
伶	-12283
忧	-12284
拐	-12285
搀	-12286
撂	-12287
贤	-12288
陈	-12289
仪	-12290
刀	-12291
副	-12292
扬	-12293
效	-12294
晌	-12295
池	-12296
聪	-12297
腿	-12298
闺	-12299
陵	-12300
乘	-12301
倪	-12302
冒	-12303
匾	-12304
午	-12305
占	-12306
固	-12307
妾	-12308
尸	-12309
材	-12310
格	-12311
楚	-12312
洋	-12313
祟	-12314
腾	-12315
辛	-12316
仰	-12317
妖	-12318
孤	-12319
扎	-12320
挽	-12321
晓	-12322
欠	-12323
汉	-12324
淘	-12325
狐	-12326
瓜	-12327
虎	-12328
运	-12329
严	-12330
份	-12331
奔	-12332
役	-12333
惚	-12334
扮	-12335
担	-12336
插	-12337
桐	-12338
毒	-12339
熬	-12340
盏	-12341
程	-12342
荒	-12343
证	-12344
货	-12345
贺	-12346
额	-12347
飘	-12348
饰	-12349
丸	-12350
减	-12351
呈	-12352
咳	-12353
啼	-12354
埋	-12355
宴	-12356
寄	-12357
拈	-12358
智	-12359
朋	-12360
枉	-12361
残	-12362
滴	-12363
烂	-12364
焚	-12365
症	-12366
脏	-12367
蘅	-12368
遗	-12369
义	-12370
倍	-12371
厌	-12372
启	-12373
咬	-12374
境	-12375
属	-12376
弃	-12377
志	-12378
悟	-12379
歌	-12380
爽	-12381
疾	-12382
肚	-12383
胎	-12384
袋	-12385
败	-12386
饿	-12387
魄	-12388
-	-12389
亡	-12390
伯	-12391
冲	-12392
叩	-12393
吉	-12394
唐	-12395
存	-12396
扭	-12397
擦	-12398
斤	-12399
武	-12400
济	-12401
浑	-12402
痰	-12403
碎	-12404
示	-12405
移	-12406
签	-12407
讪	-12408
蹄	-12409
透	-12410
逢	-12411
鱼	-12412
丹	-12413
匹	-12414
导	-12415
式	-12416
撕	-12417
泼	-12418
脾	-12419
艳	-12420
褥	-12421
评	-12422
财	-12423
赎	-12424
陀	-12425
匣	-12426
叠	-12427
壶	-12428
始	-12429
威	-12430
婿	-12431
忠	-12432
拭	-12433
挣	-12434
柔	-12435
款	-12436
浪	-12437
献	-12438
硬	-12439
统	-12440
荡	-12441
菩	-12442
鞋	-12443
鼻	-12444
佩	-12445
冰	-12446
叨	-12447
员	-12448
啊	-12449
寸	-12450
布	-12451
恭	-12452
捆	-12453
显	-12454
烛	-12455
绫	-12456
绮	-12457
绵	-12458
访	-12459
谓	-12460
豆	-12461
阶	-12462
验	-12463
乌	-12464
仆	-12465
吴	-12466
呜	-12467
哀	-12468
弹	-12469
愚	-12470
梨	-12471
毡	-12472
河	-12473
激	-12474
砚	-12475
祸	-12476
禄	-12477
粮	-12478
绢	-12479
耐	-12480
腹	-12481
蕊	-12482
蕙	-12483
赤	-12484
踏	-12485
辉	-12486
追	-12487
骑	-12488
侧	-12489
劫	-12490
喘	-12491
嚼	-12492
审	-12493
展	-12494
幽	-12495
撑	-12496
桥	-12497
检	-12498
殡	-12499
沾	-12500
焦	-12501
盗	-12502
秀	-12503
稍	-12504
粥	-12505
翁	-12506
股	-12507
芦	-12508
萨	-12509
覆	-12510
鼠	-12511
串	-12512
乖	-12513
勤	-12514
咧	-12515
御	-12516
慈	-12517
掀	-12518
攒	-12519
斋	-12520
栏	-12521
符	-12522
绕	-12523
肝	-12524
芜	-12525
葬	-12526
诊	-12527
逃	-12528
郎	-12529
助	-12530
唧	-12531
摔	-12532
殿	-12533
注	-12534
洞	-12535
演	-12536
爹	-12537
牛	-12538
络	-12539
耗	-12540
苏	-12541
责	-12542
采	-12543
冬	-12544
唆	-12545
射	-12546
局	-12547
希	-12548
弯	-12549
拌	-12550
权	-12551
染	-12552
民	-12553
灌	-12554
状	-12555
狂	-12556
稳	-12557
蒋	-12558
蠢	-12559
训	-12560
辜	-12561
违	-12562
钓	-12563
魔	-12564
产	-12565
军	-12566
冠	-12567
凶	-12568
律	-12569
怯	-12570
捶	-12571
揖	-12572
瞪	-12573
禅	-12574
童	-12575
考	-12576
蕉	-12577
诚	-12578
较	-12579
释	-12580
井	-12581
俊	-12582
俐	-12583
剑	-12584
坛	-12585
尾	-12586
悦	-12587
批	-12588
抚	-12589
拆	-12590
朱	-12591
某	-12592
浮	-12593
碟	-12594
稻	-12595
贪	-12596
贱	-12597
辰	-12598
选	-12599
速	-12600
钻	-12601
降	-12602
鸾	-12603
丁	-12604
丈	-12605
列	-12606
剂	-12607
咏	-12608
塌	-12609
怄	-12610
束	-12611
沁	-12612
洒	-12613
漆	-12614
烫	-12615
煎	-12616
砸	-12617
籍	-12618
纷	-12619
虑	-12620
蟹	-12621
课	-12622
谕	-12623
轮	-12624
载	-12625
雷	-12626
倦	-12627
刺	-12628
吁	-12629
媚	-12630
庭	-12631
录	-12632
态	-12633
挺	-12634
掏	-12635
末	-12636
棺	-12637
熏	-12638
猛	-12639
猩	-12640
璃	-12641
盼	-12642
瞎	-12643
磨	-12644
积	-12645
辆	-12646
醋	-12647
零	-12648
颠	-12649
鸟	-12650
凄	-12651
吾	-12652
唇	-12653
坡	-12654
填	-12655
姻	-12656
媒	-12657
忒	-12658
惧	-12659
慕	-12660
扑	-12661
挤	-12662
斯	-12663
旦	-12664
栊	-12665
洁	-12666
牵	-12667
界	-12668
续	-12669
绸	-12670
耶	-12671
舞	-12672
菡	-12673
觅	-12674
谨	-12675
邀	-12676
颦	-12677
享	-12678
勒	-12679
卿	-12680
嗔	-12681
坟	-12682
妄	-12683
婚	-12684
宋	-12685
寡	-12686
延	-12687
拳	-12688
揉	-12689
搂	-12690
摘	-12691
晕	-12692
标	-12693
棚	-12694
永	-12695
猴	-12696
甜	-12697
畏	-12698
祠	-12699
箸	-12700
胭	-12701
膝	-12702
芙	-12703
虫	-12704
衾	-12705
详	-12706
跌	-12707
轩	-12708
达	-12709
鹤	-12710
具	-12711
厢	-12712
咒	-12713
哼	-12714
孔	-12715
寞	-12716
怠	-12717
悠	-12718
扣	-12719
檐	-12720
浊	-12721
熙	-12722
玻	-12723
缓	-12724
羊	-12725
聘	-12726
膏	-12727
蜡	-12728
蹲	-12729
遮	-12730
闭	-12731
驾	-12732
骰	-12733
(	-12734
)	-12735
允	-12736
卯	-12737
夕	-12738
夸	-12739
妒	-12740
尺	-12741
恕	-12742
拨	-12743
昼	-12744
柜	-12745
榭	-12746
浅	-12747
焉	-12748
糟	-12749
缝	-12750
肩	-12751
脖	-12752
腮	-12753
腻	-12754
苑	-12755
蝶	-12756
誓	-12757
赋	-12758
赢	-12759
践	-12760
踪	-12761
郡	-12762
雇	-12763
驳	-12764
鼎	-12765
齿	-12766
哈	-12767
宾	-12768
巡	-12769
忌	-12770
战	-12771
押	-12772
抿	-12773
柩	-12774
泉	-12775
碌	-12776
筋	-12777
簇	-12778
螃	-12779
袱	-12780
诰	-12781
谋	-12782
趟	-12783
辱	-12784
隆	-12785
龄	-12786
仇	-12787
促	-12788
僻	-12789
冻	-12790
呵	-12791
哉	-12792
困	-12793
基	-12794
壮	-12795
宦	-12796
尖	-12797
庆	-12798
忖	-12799
惦	-12800
惭	-12801
拔	-12802
捱	-12803
掐	-12804
晨	-12805
朵	-12806
柴	-12807
梁	-12808
梯	-12809
漏	-12810
灭	-12811
猫	-12812
盥	-12813
筵	-12814
绛	-12815
罩	-12816
羡	-12817
腔	-12818
臣	-12819
臭	-12820
苍	-12821
蛋	-12822
衔	-12823
裹	-12824
质	-12825
赚	-12826
踢	-12827
遥	-12828
酬	-12829
际	-12830
集	-12831
雕	-12832
霸	-12833
丑	-12834
丽	-12835
价	-12836
俏	-12837
奁	-12838
库	-12839
悉	-12840
慎	-12841
昭	-12842
眠	-12843
秉	-12844
稀	-12845
稿	-12846
竿	-12847
笨	-12848
篱	-12849
茫	-12850
营	-12851
裤	-12852
褂	-12853
销	-12854
镇	-12855
障	-12856
革	-12857
鹿	-12858
乳	-12859
付	-12860
击	-12861
刑	-12862
匙	-12863
卦	-12864
卸	-12865
坊	-12866
尔	-12867
帝	-12868
幺	-12869
序	-12870
庶	-12871
忿	-12872
戳	-12873
拖	-12874
拥	-12875
拴	-12876
斜	-12877
灾	-12878
甥	-12879
痒	-12880
突	-12881
繁	-12882
肃	-12883
胸	-12884
触	-12885
詹	-12886
谦	-12887
逐	-12888
阅	-12889
阻	-12890
附	-12891
鬓	-12892
充	-12893
兵	-12894
凝	-12895
否	-12896
囊	-12897
宵	-12898
寝	-12899
徒	-12900
扁	-12901
捉	-12902
晶	-12903
杜	-12904
毫	-12905
沙	-12906
泄	-12907
浓	-12908
狭	-12909
甘	-12910
瘦	-12911
笛	-12912
绪	-12913
蜂	-12914
衰	-12915
跺	-12916
适	-12917
雄	-12918
靴	-12919
颗	-12920
颤	-12921
鸭	-12922
鹅	-12923
偿	-12924
决	-12925
划	-12926
博	-12927
厦	-12928
吞	-12929
嘟	-12930
塾	-12931
姬	-12932
宣	-12933
岸	-12934
店	-12935
截	-12936
扰	-12937
拋	-12938
揽	-12939
撤	-12940
敷	-12941
朗	-12942
杨	-12943
溶	-12944
烈	-12945
甲	-12946
砌	-12947
筝	-12948
箭	-12949
缀	-12950
聊	-12951
舒	-12952
荐	-12953
贝	-12954
郁	-12955
饥	-12956
鹦	-12957
乍	-12958
克	-12959
兜	-12960
刁	-12961
判	-12962
吆	-12963
吏	-12964
嘉	-12965
契	-12966
娼	-12967
巍	-12968
幔	-12969
廷	-12970
拗	-12971
挥	-12972
掣	-12973
擅	-12974
暇	-12975
朦	-12976
梢	-12977
橱	-12978
润	-12979
湿	-12980
源	-12981
溺	-12982
滑	-12983
漫	-12984
煞	-12985
猪	-12986
祥	-12987
篷	-12988
继	-12989
耀	-12990
舟	-12991
艰	-12992
苔	-12993
茜	-12994
荆	-12995
萧	-12996
葫	-12997
蝉	-12998
讳	-12999
讹	-13000
诌	-13001
诞	-13002
超	-13003
酌	-13004
酥	-13005
钉	-13006
铜	-13007
麟	-13008
麻	-13009
兆	-13010
匠	-13011
哝	-13012
奠	-13013
嫩	-13014
峰	-13015
市	-13016
帽	-13017
幅	-13018
庚	-13019
惠	-13020
戒	-13021
捏	-13022
搅	-13023
曹	-13024
棍	-13025
檀	-13026
殊	-13027
污	-13028
泡	-13029
炒	-13030
狼	-13031
率	-13032
玫	-13033
瑰	-13034
祝	-13035
票	-13036
绳	-13037
羽	-13038
肏	-13039
藤	-13040
蟒	-13041
裘	-13042
谅	-13043
赠	-13044
迭	-13045
逝	-13046
锄	-13047
阔	-13048
隙	-13049
鞭	-13050
饼	-13051
鸦	-13052
麒	-13053
俭	-13054
傅	-13055
危	-13056
叮	-13057
嗤	-13058
圃	-13059
坑	-13060
奸	-13061
屁	-13062
屉	-13063
履	-13064
弦	-13065
忆	-13066
恋	-13067
抖	-13068
拂	-13069
捡	-13070
揣	-13071
敲	-13072
枯	-13073
测	-13074
炭	-13075
炮	-13076
爵	-13077
瓦	-13078
皱	-13079
筹	-13080
絮	-13081
绞	-13082
获	-13083
蠲	-13084
襟	-13085
赘	-13086
迁	-13087
逸	-13088
遵	-13089
镯	-13090
闪	-13091
馔	-13092
鸣	-13093
兔	-13094
兢	-13095
凿	-13096
协	-13097
卜	-13098
唠	-13099
嚎	-13100
垫	-13101
娥	-13102
崽	-13103
幕	-13104
惨	-13105
拧	-13106
搪	-13107
暴	-13108
栽	-13109
橘	-13110
沐	-13111
浇	-13112
申	-13113
疆	-13114
矶	-13115
硝	-13116
租	-13117
织	-13118
绰	-13119
缩	-13120
缺	-13121
胧	-13122
苓	-13123
茄	-13124
蒸	-13125
蓬	-13126
谤	-13127
赴	-13128
辨	-13129
辩	-13130
迈	-13131
逗	-13132
乞	-13133
佑	-13134
债	-13135
倾	-13136
偈	-13137
凰	-13138
割	-13139
印	-13140
哽	-13141
嘲	-13142
噎	-13143
坎	-13144
埂	-13145
夭	-13146
姜	-13147
帚	-13148
恃	-13149
恒	-13150
拄	-13151
掇	-13152
旗	-13153
昔	-13154
暑	-13155
殷	-13156
涕	-13157
渡	-13158
矮	-13159
窃	-13160
筒	-13161
糕	-13162
糖	-13163
胞	-13164
膀	-13165
苇	-13166
茯	-13167
荫	-13168
藩	-13169
蜜	-13170
谜	-13171
赃	-13172
钦	-13173
镶	-13174
骗	-13175
〔	-13176
〕	-13177
亩	-13178
优	-13179
伞	-13180
俯	-13181
健	-13182
傍	-13183
凳	-13184
劲	-13185
厉	-13186
叉	-13187
呱	-13188
喷	-13189
堵	-13190
孟	-13191
宇	-13192
屯	-13193
巷	-13194
慧	-13195
掖	-13196
描	-13197
撰	-13198
旋	-13199
映	-13200
晦	-13201
暮	-13202
株	-13203
榜	-13204
殓	-13205
毁	-13206
汝	-13207
沏	-13208
洲	-13209
爻	-13210
牡	-13211
琼	-13212
盂	-13213
盐	-13214
睦	-13215
穗	-13216
绊	-13217
肥	-13218
肿	-13219
舆	-13220
菌	-13221
葛	-13222
董	-13223
蓼	-13224
薇	-13225
诵	-13226
谣	-13227
途	-13228
鉴	-13229
锞	-13230
颂	-13231
馒	-13232
魁	-13233
丛	-13234
乩	-13235
侵	-13236
剔	-13237
勋	-13238
喇	-13239
喉	-13240
姿	-13241
婢	-13242
寅	-13243
岔	-13244
建	-13245
憨	-13246
攻	-13247
敏	-13248
敛	-13249
旷	-13250
杖	-13251
汪	-13252
渍	-13253
炸	-13254
炼	-13255
烘	-13256
烹	-13257
煌	-13258
畅	-13259
盹	-13260
窑	-13261
笠	-13262
笺	-13263
绡	-13264
肺	-13265
胀	-13266
腊	-13267
臂	-13268
舀	-13269
茅	-13270
葱	-13271
蒲	-13272
袜	-13273
褪	-13274
谏	-13275
谱	-13276
豁	-13277
豪	-13278
资	-13279
躁	-13280
逞	-13281
钥	-13282
钩	-13283
阎	-13284
陆	-13285
险	-13286
需	-13287
颇	-13288
饱	-13289
驱	-13290
伦	-13291
俞	-13292
兑	-13293
兽	-13294
剥	-13295
努	-13296
咚	-13297
咭	-13298
唯	-13299
嘁	-13300
堤	-13301
奖	-13302
奢	-13303
妯	-13304
娌	-13305
嵌	-13306
弊	-13307
恳	-13308
恹	-13309
挡	-13310
措	-13311
揪	-13312
摩	-13313
撩	-13314
撮	-13315
斑	-13316
昌	-13317
杆	-13318
杌	-13319
柏	-13320
槅	-13321
波	-13322
泻	-13323
涉	-13324
涨	-13325
溪	-13326
滥	-13327
玄	-13328
玲	-13329
珑	-13330
琐	-13331
琪	-13332
璜	-13333
瓣	-13334
癞	-13335
皂	-13336
祀	-13337
笋	-13338
粘	-13339
绦	-13340
网	-13341
耻	-13342
肆	-13343
肋	-13344
胶	-13345
芍	-13346
芭	-13347
荔	-13348
萍	-13349
萝	-13350
蔬	-13351
薨	-13352
藻	-13353
虔	-13354
蛇	-13355
螺	-13356
觑	-13357
谷	-13358
貂	-13359
赫	-13360
踩	-13361
蹬	-13362
躬	-13363
轰	-13364
鄙	-13365
铰	-13366
锅	-13367
黹	-13368
互	-13369
估	-13370
农	-13371
哦	-13372
哧	-13373
喳	-13374
嗓	-13375
增	-13376
奚	-13377
妞	-13378
寇	-13379
屄	-13380
广	-13381
庸	-13382
弓	-13383
征	-13384
恤	-13385
患	-13386
技	-13387
拚	-13388
拷	-13389
捂	-13390
捣	-13391
掸	-13392
搓	-13393
斩	-13394
晾	-13395
柱	-13396
森	-13397
槽	-13398
欣	-13399
津	-13400
洪	-13401
浸	-13402
淹	-13403
渴	-13404
渺	-13405
潜	-13406
澡	-13407
炎	-13408
牢	-13409
玷	-13410
畔	-13411
痨	-13412
窄	-13413
竭	-13414
简	-13415
粒	-13416
纤	-13417
肌	-13418
肢	-13419
腥	-13420
蓑	-13421
衬	-13422
袅	-13423
袍	-13424
贬	-13425
辣	-13426
锭	-13427
馋	-13428
鲛	-13429
鸿	-13430
介	-13431
仿	-13432
凸	-13433
刮	-13434
召	-13435
呸	-13436
喧	-13437
嗟	-13438
塑	-13439
嫦	-13440
寓	-13441
尉	-13442
废	-13443
惶	-13444
抵	-13445
拢	-13446
拽	-13447
挫	-13448
掰	-13449
昧	-13450
晃	-13451
术	-13452
栗	-13453
棒	-13454
椒	-13455
淌	-13456
渊	-13457
滋	-13458
滞	-13459
潘	-13460
熨	-13461
瓢	-13462
畜	-13463
疗	-13464
癫	-13465
盈	-13466
睬	-13467
研	-13468
科	-13469
窍	-13470
簌	-13471
粱	-13472
粳	-13473
肖	-13474
胃	-13475
舜	-13476
蓄	-13477
贡	-13478
跨	-13479
踱	-13480
蹈	-13481
返	-13482
迸	-13483
邻	-13484
酿	-13485
陛	-13486
陷	-13487
骚	-13488
仕	-13489
伊	-13490
倏	-13491
倩	-13492
偕	-13493
冢	-13494
冥	-13495
凹	-13496
削	-13497
卉	-13498
嗐	-13499
嘘	-13500
嫡	-13501
崇	-13502
帛	-13503
幡	-13504
庇	-13505
恣	-13506
慨	-13507
抠	-13508
拙	-13509
捞	-13510
损	-13511
掂	-13512
授	-13513
撺	-13514
晒	-13515
柄	-13516
栖	-13517
桑	-13518
棉	-13519
棵	-13520
沫	-13521
淋	-13522
港	-13523
潮	-13524
炷	-13525
爆	-13526
爪	-13527
犬	-13528
琮	-13529
瑶	-13530
畸	-13531
盟	-13532
睹	-13533
瞻	-13534
祷	-13535
箩	-13536
箫	-13537
纯	-13538
纺	-13539
绒	-13540
翰	-13541
聋	-13542
育	-13543
腌	-13544
腐	-13545
腕	-13546
艺	-13547
芋	-13548
荳	-13549
葵	-13550
蒂	-13551
蚊	-13552
蝇	-13553
衫	-13554
譬	-13555
谬	-13556
蹙	-13557
蹭	-13558
辖	-13559
辫	-13560
酱	-13561
錾	-13562
镂	-13563
陶	-13564
霍	-13565
韶	-13566
颓	-13567
饬	-13568
驰	-13569
仓	-13570
侬	-13571
俺	-13572
傲	-13573
凌	-13574
匀	-13575
卫	-13576
吧	-13577
咛	-13578
咯	-13579
咸	-13580
哑	-13581
啷	-13582
喂	-13583
噪	-13584
坚	-13585
夙	-13586
妩	-13587
宰	-13588
岳	-13589
帏	-13590
忏	-13591
惺	-13592
戌	-13593
捐	-13594
捕	-13595
捷	-13596
攀	-13597
敌	-13598
普	-13599
桶	-13600
楷	-13601
榴	-13602
殴	-13603
泊	-13604
涎	-13605
涩	-13606
溉	-13607
漂	-13608
澄	-13609
灿	-13610
狮	-13611
瑛	-13612
璎	-13613
甬	-13614
皿	-13615
砂	-13616
砖	-13617
磁	-13618
税	-13619
稽	-13620
窥	-13621
篓	-13622
篮	-13623
簸	-13624
绍	-13625
缉	-13626
缸	-13627
翅	-13628
翼	-13629
聒	-13630
肴	-13631
腆	-13632
腼	-13633
膳	-13634
芬	-13635
芷	-13636
荇	-13637
荼	-13638
莹	-13639
萎	-13640
虾	-13641
蝈	-13642
蝎	-13643
讯	-13644
诓	-13645
诘	-13646
诺	-13647
谙	-13648
贯	-13649
趋	-13650
跛	-13651
踹	-13652
蹑	-13653
逆	-13654
酣	-13655
锡	-13656
雏	-13657
雾	-13658
靸	-13659
顷	-13660
饯	-13661
驮	-13662
骄	-13663
魇	-13664
鲁	-13665
佯	-13666
党	-13667
删	-13668
剃	-13669
劈	-13670
勘	-13671
哇	-13672
哗	-13673
哨	-13674
啕	-13675
啬	-13676
囚	-13677
坞	-13678
垣	-13679
塘	-13680
娟	-13681
婉	-13682
寐	-13683
寥	-13684
尧	-13685
尿	-13686
崩	-13687
康	-13688
徇	-13689
怅	-13690
悼	-13691
愦	-13692
抑	-13693
撇	-13694
攥	-13695
敝	-13696
敞	-13697
斝	-13698
枪	-13699
桩	-13700
榔	-13701
槟	-13702
沽	-13703
泛	-13704
浆	-13705
浣	-13706
浩	-13707
淅	-13708
淑	-13709
溆	-13710
煮	-13711
牲	-13712
狸	-13713
珞	-13714
琵	-13715
琶	-13716
瓮	-13717
癖	-13718
眩	-13719
矾	-13720
确	-13721
秤	-13722
秽	-13723
窟	-13724
篆	-13725
篦	-13726
粪	-13727
纂	-13728
练	-13729
罐	-13730
羔	-13731
翔	-13732
舔	-13733
芒	-13734
苛	-13735
茂	-13736
范	-13737
荤	-13738
莽	-13739
虞	-13740
蝴	-13741
裂	-13742
裕	-13743
览	-13744
誊	-13745
诽	-13746
谊	-13747
趄	-13748
趔	-13749
迂	-13750
郊	-13751
酪	-13752
铃	-13753
锋	-13754
镌	-13755
陋	-13756
骡	-13757
髓	-13758
鹉	-13759
ㄠ	-13760
丘	-13761
乜	-13762
俟	-13763
倭	-13764
僵	-13765
冉	-13766
冗	-13767
剖	-13768
劣	-13769
卤	-13770
吱	-13771
咤	-13772
唾	-13773
堕	-13774
夷	-13775
奄	-13776
姽	-13777
娈	-13778
婳	-13779
婷	-13780
嫉	-13781
嫔	-13782
屎	-13783
巳	-13784
幌	-13785
徊	-13786
徘	-13787
愠	-13788
憋	-13789
懦	-13790
戈	-13791
戥	-13792
挖	-13793
掳	-13794
擂	-13795
攮	-13796
敕	-13797
旌	-13798
旬	-13799
昂	-13800
晋	-13801
朴	-13802
朽	-13803
枣	-13804
梆	-13805
榆	-13806
槐	-13807
汁	-13808
沟	-13809
沥	-13810
沸	-13811
泽	-13812
洑	-13813
洼	-13814
渚	-13815
湖	-13816
灼	-13817
焕	-13818
焰	-13819
狱	-13820
球	-13821
电	-13822
甸	-13823
疮	-13824
砍	-13825
碑	-13826
禽	-13827
秘	-13828
笏	-13829
笙	-13830
筏	-13831
筑	-13832
策	-13833
籰	-13834
绉	-13835
绎	-13836
绻	-13837
缨	-13838
缱	-13839
羁	-13840
羹	-13841
耿	-13842
肤	-13843
脊	-13844
艾	-13845
菖	-13846
萦	-13847
蔽	-13848
薜	-13849
蘸	-13850
螫	-13851
螭	-13852
蠹	-13853
衷	-13854
褒	-13855
誉	-13856
讽	-13857
诈	-13858
诛	-13859
豫	-13860
贩	-13861
贮	-13862
赊	-13863
跤	-13864
踌	-13865
酷	-13866
锣	-13867
闸	-13868
阑	-13869
霄	-13870
霰	-13871
靶	-13872
鞍	-13873
飒	-13874
飖	-13875
饧	-13876
驴	-13877
骇	-13878
骘	-13879
髟	-13880
髻	-13881
黎	-13882
龟	-13883
仅	-13884
侮	-13885
俄	-13886
兹	-13887
剿	-13888
励	-13889
卍	-13890
厕	-13891
厥	-13892
咂	-13893
啰	-13894
喻	-13895
嗅	-13896
噙	-13897
均	-13898
坳	-13899
埃	-13900
培	-13901
墓	-13902
壑	-13903
壳	-13904
妪	-13905
姣	-13906
娜	-13907
嫖	-13908
季	-13909
孰	-13910
尹	-13911
屐	-13912
川	-13913
帑	-13914
廉	-13915
彻	-13916
惰	-13917
愤	-13918
懊	-13919
戕	-13920
扛	-13921
扳	-13922
抡	-13923
拱	-13924
拼	-13925
挟	-13926
挠	-13927
捎	-13928
握	-13929
搳	-13930
撷	-13931
擎	-13932
擒	-13933
朔	-13934
杠	-13935
枚	-13936
栋	-13937
核	-13938
桔	-13939
档	-13940
梧	-13941
械	-13942
榛	-13943
殒	-13944
洛	-13945
洽	-13946
涌	-13947
滔	-13948
灶	-13949
烤	-13950
烬	-13951
焐	-13952
煤	-13953
狲	-13954
琅	-13955
琢	-13956
瓷	-13957
皓	-13958
矛	-13959
砒	-13960
砧	-13961
穰	-13962
箍	-13963
箴	-13964
篙	-13965
纲	-13966
绅	-13967
维	-13968
绽	-13969
绾	-13970
缚	-13971
缟	-13972
缮	-13973
翡	-13974
肘	-13975
脯	-13976
膊	-13977
臾	-13978
舛	-13979
舡	-13980
芝	-13981
茉	-13982
莉	-13983
萱	-13984
蛆	-13985
蝗	-13986
融	-13987
衍	-13988
订	-13989
讶	-13990
诏	-13991
诔	-13992
谑	-13993
豹	-13994
赁	-13995
躇	-13996
迤	-13997
逊	-13998
逶	-13999
遁	-14000
酉	-14001
醮	-14002
醺	-14003
钵	-14004
闱	-14005
阄	-14006
队	-14007
阮	-14008
陇	-14009
震	-14010
靥	-14011
页	-14012
颊	-14013
频	-14014
飕	-14015
鲸	-14016
鸹	-14017
鹰	-14018
"	-14019
乔	-14020
亥	-14021
亵	-14022
仃	-14023
仄	-14024
仵	-14025
侈	-14026
俸	-14027
凋	-14028
凫	-14029
刎	-14030
匪	-14031
匿	-14032
叛	-14033
叱	-14034
吣	-14035
呻	-14036
哆	-14037
唰	-14038
唿	-14039
啖	-14040
啻	-14041
嗄	-14042
嗣	-14043
嘈	-14044
噗	-14045
垄	-14046
墀	-14047
壅	-14048
奋	-14049
妍	-14050
娣	-14051
娲	-14052
娴	-14053
宏	-14054
宪	-14055
尬	-14056
尴	-14057
峨	-14058
巢	-14059
巨	-14060
幙	-14061
幢	-14062
彷	-14063
徐	-14064
徨	-14065
徽	-14066
忡	-14067
怏	-14068
恸	-14069
悍	-14070
您	-14071
悴	-14072
慷	-14073
憔	-14074
戮	-14075
振	-14076
挲	-14077
捺	-14078
捻	-14079
掠	-14080
揎	-14081
摧	-14082
撅	-14083
斛	-14084
旱	-14085
昆	-14086
晰	-14087
暄	-14088
暹	-14089
札	-14090
枫	-14091
枳	-14092
柯	-14093
桓	-14094
楞	-14095
槎	-14096
氅	-14097
沤	-14098
涯	-14099
涵	-14100
涸	-14101
渣	-14102
渥	-14103
湍	-14104
湾	-14105
滩	-14106
澌	-14107
灸	-14108
炖	-14109
炙	-14110
熄	-14111
燎	-14112
燥	-14113
猖	-14114
猢	-14115
猿	-14116
珐	-14117
珖	-14118
瑕	-14119
瓟	-14120
痊	-14121
眸	-14122
督	-14123
瞥	-14124
瞬	-14125
碣	-14126
磊	-14127
禧	-14128
秃	-14129
稚	-14130
稼	-14131
穆	-14132
窜	-14133
笤	-14134
筛	-14135
筷	-14136
箕	-14137
縻	-14138
级	-14139
纬	-14140
绔	-14141
绩	-14142
罔	-14143
署	-14144
罽	-14145
翎	-14146
胖	-14147
胳	-14148
腋	-14149
膈	-14150
膻	-14151
臻	-14152
芥	-14153
芽	-14154
苗	-14155
荧	-14156
莱	-14157
葳	-14158
蓝	-14159
蕤	-14160
虐	-14161
蚂	-14162
蛩	-14163
螯	-14164
衡	-14165
袂	-14166
裔	-14167
褶	-14168
襄	-14169
讼	-14170
诟	-14171
诡	-14172
诳	-14173
谆	-14174
谶	-14175
赈	-14176
跃	-14177
蹋	-14178
躯	-14179
轴	-14180
辅	-14181
迅	-14182
迢	-14183
迥	-14184
迩	-14185
逾	-14186
酽	-14187
钝	-14188
锤	-14189
镫	-14190
闯	-14191
阗	-14192
隶	-14193
靖	-14194
靛	-14195
颖	-14196
餐	-14197
饽	-14198
馥	-14199
驻	-14200
骤	-14201
髯	-14202
鳅	-14203
鳖	-14204
鹊	-14205
鹑	-14206
齑	-14207
<	-14208
>	-14209
丐	-14210
乙	-14211
亘	-14212
仲	-14213
伐	-14214
伽	-14215
侠	-14216
俩	-14217
僭	-14218
券	-14219
剌	-14220
剐	-14221
勿	-14222
匆	-14223
匝	-14224
卑	-14225
卒	-14226
卵	-14227
呕	-14228
呛	-14229
呦	-14230
呷	-14231
哩	-14232
喽	-14233
嗜	-14234
嗡	-14235
嗷	-14236
噜	-14237
嚏	-14238
囔	-14239
坤	-14240
坦	-14241
墅	-14242
墩	-14243
夔	-14244
夯	-14245
妓	-14246
娄	-14247
婪	-14248
婵	-14249
媛	-14250
嫣	-14251
嬉	-14252
孀	-14253
孕	-14254
宠	-14255
寰	-14256
屑	-14257
屠	-14258
峻	-14259
崖	-14260
巫	-14261
庐	-14262
循	-14263
忝	-14264
怖	-14265
恙	-14266
恬	-14267
恻	-14268
恿	-14269
悚	-14270
悯	-14271
惬	-14272
憾	-14273
拮	-14274
掘	-14275
揩	-14276
援	-14277
搏	-14278
搐	-14279
搛	-14280
摄	-14281
攘	-14282
敦	-14283
旅	-14284
晖	-14285
杳	-14286
构	-14287
枰	-14288
柚	-14289
柢	-14290
梓	-14291
梗	-14292
棔	-14293
棘	-14294
椁	-14295
楠	-14296
槁	-14297
樨	-14298
欧	-14299
殃	-14300
殄	-14301
殉	-14302
毯	-14303
汀	-14304
沼	-14305
浙	-14306
浦	-14307
液	-14308
渎	-14309
渔	-14310
湃	-14311
漕	-14312
潢	-14313
潦	-14314
炫	-14315
炽	-14316
爖	-14317
牖	-14318
狡	-14319
獐	-14320
獗	-14321
玛	-14322
玦	-14323
珊	-14324
琉	-14325
瑙	-14326
瑟	-14327
瓤	-14328
甩	-14329
畦	-14330
疔	-14331
瘟	-14332
癣	-14333
盾	-14334
瞟	-14335
矜	-14336
砾	-14337
磬	-14338
穴	-14339
窿	-14340
竞	-14341
竣	-14342
笆	-14343
笞	-14344
簟	-14345
簿	-14346
粤	-14347
糙	-14348
纶	-14349
组	-14350
绑	-14351
绺	-14352
缢	-14353
缤	-14354
翩	-14355
耕	-14356
耸	-14357
聆	-14358
肓	-14359
脆	-14360
脐	-14361
臜	-14362
臼	-14363
舫	-14364
茎	-14365
菂	-14366
菲	-14367
萤	-14368
葡	-14369
葭	-14370
蔓	-14371
蕴	-14372
蘼	-14373
虱	-14374
蚁	-14375
蛤	-14376
蛾	-14377
蜀	-14378
裀	-14379
裱	-14380
觞	-14381
讥	-14382
诙	-14383
诨	-14384
诬	-14385
诮	-14386
诱	-14387
诲	-14388
诼	-14389
谐	-14390
谲	-14391
贞	-14392
贷	-14393
贸	-14394
趸	-14395
跄	-14396
跹	-14397
踉	-14398
踊	-14399
蹰	-14400
蹶	-14401
蹿	-14402
轨	-14403
辘	-14404
辟	-14405
迫	-14406
邦	-14407
邸	-14408
郑	-14409
郭	-14410
铿	-14411
锵	-14412
闩	-14413
阐	-14414
阙	-14415
陡	-14416
雌	-14417
霁	-14418
霭	-14419
靡	-14420
鞘	-14421
韦	-14422
韩	-14423
颈	-14424
颧	-14425
饵	-14426
馅	-14427
馈	-14428
驸	-14429
驼	-14430
骆	-14431
骯	-14432
骷	-14433
髅	-14434
魆	-14435
鸠	-14436
鹌	-14437
麦	-14438
—	-14439
丞	-14440
乾	-14441
予	-14442
伫	-14443
佐	-14444
佚	-14445
佣	-14446
佻	-14447
俦	-14448
俨	-14449
倔	-14450
倡	-14451
偌	-14452
傧	-14453
僚	-14454
冀	-14455
冶	-14456
冽	-14457
凛	-14458
创	-14459
剎	-14460
劾	-14461
匡	-14462
厄	-14463
厘	-14464
吝	-14465
吸	-14466
咈	-14467
咙	-14468
咻	-14469
唏	-14470
唪	-14471
唼	-14472
啥	-14473
啸	-14474
啾	-14475
喃	-14476
喋	-14477
嘎	-14478
囟	-14479
圭	-14480
址	-14481
垢	-14482
埘	-14483
埭	-14484
塔	-14485
墟	-14486
奥	-14487
姆	-14488
娃	-14489
娆	-14490
娑	-14491
婺	-14492
嫱	-14493
孺	-14494
宥	-14495
宸	-14496
崔	-14497
嵇	-14498
嵩	-14499
嶂	-14500
巅	-14501
帆	-14502
帔	-14503
帜	-14504
帷	-14505
幄	-14506
庞	-14507
弋	-14508
彝	-14509
彭	-14510
忱	-14511
怂	-14512
恢	-14513
惓	-14514
惕	-14515
惙	-14516
惛	-14517
愕	-14518
慵	-14519
憎	-14520
懈	-14521
戍	-14522
戎	-14523
戟	-14524
扔	-14525
扪	-14526
拇	-14527
拒	-14528
括	-14529
挦	-14530
控	-14531
掯	-14532
搔	-14533
搴	-14534
摊	-14535
播	-14536
撼	-14537
斧	-14538
旄	-14539
昵	-14540
朕	-14541
杉	-14542
杓	-14543
杰	-14544
枢	-14545
栅	-14546
栉	-14547
栩	-14548
桧	-14549
桨	-14550
梏	-14551
棕	-14552
棹	-14553
植	-14554
楣	-14555
楫	-14556
楹	-14557
榄	-14558
槌	-14559
槿	-14560
樊	-14561
樱	-14562
樾	-14563
橄	-14564
檠	-14565
欹	-14566
歧	-14567
殁	-14568
殚	-14569
氤	-14570
氲	-14571
汲	-14572
沌	-14573
沦	-14574
泠	-14575
泰	-14576
浴	-14577
涛	-14578
涝	-14579
涮	-14580
淇	-14581
淖	-14582
淮	-14583
淳	-14584
湫	-14585
湮	-14586
溢	-14587
滃	-14588
滓	-14589
漉	-14590
潭	-14591
潸	-14592
炬	-14593
炯	-14594
炳	-14595
烁	-14596
烙	-14597
煨	-14598
煽	-14599
爨	-14600
爰	-14601
版	-14602
牍	-14603
犀	-14604
犄	-14605
狎	-14606
狞	-14607
狰	-14608
猁	-14609
猗	-14610
猞	-14611
獭	-14612
珩	-14613
珰	-14614
琛	-14615
琳	-14616
瑚	-14617
璘	-14618
璧	-14619
痘	-14620
瘀	-14621
瘸	-14622
皎	-14623
皑	-14624
睇	-14625
睢	-14626
瞽	-14627
矢	-14628
碴	-14629
祈	-14630
祚	-14631
禹	-14632
秾	-14633
稠	-14634
穹	-14635
窘	-14636
窠	-14637
笃	-14638
筅	-14639
篾	-14640
簧	-14641
籁	-14642
粼	-14643
糜	-14644
糠	-14645
糯	-14646
紬	-14647
纛	-14648
纡	-14649
纣	-14650
纫	-14651
缁	-14652
缥	-14653
羼	-14654
翘	-14655
翥	-14656
翦	-14657
肷	-14658
胫	-14659
腑	-14660
臆	-14661
舱	-14662
苒	-14663
苞	-14664
苟	-14665
茔	-14666
茞	-14667
荏	-14668
荻	-14669
萄	-14670
葩	-14671
蒹	-14672
蓍	-14673
蔡	-14674
蔺	-14675
蔻	-14676
薪	-14677
藉	-14678
藐	-14679
虬	-14680
蚌	-14681
蛊	-14682
蛮	-14683
蛰	-14684
蝠	-14685
蟀	-14686
蟆	-14687
蟋	-14688
蠡	-14689
衢	-14690
衿	-14691
裢	-14692
褓	-14693
褙	-14694
褡	-14695
褵	-14696
襁	-14697
觌	-14698
觐	-14699
觚	-14700
觥	-14701
讵	-14702
谇	-14703
谒	-14704
谖	-14705
谗	-14706
谛	-14707
谥	-14708
谵	-14709
貉	-14710
贿	-14711
赛	-14712
赭	-14713
趱	-14714
趾	-14715
跏	-14716
跐	-14717
跷	-14718
跸	-14719
踟	-14720
蹁	-14721
轳	-14722
轸	-14723
辔	-14724
辕	-14725
辗	-14726
辙	-14727
迄	-14728
逍	-14729
逻	-14730
邙	-14731
邱	-14732
酗	-14733
銮	-14734
钢	-14735
钤	-14736
钮	-14737
铭	-14738
锢	-14739
锯	-14740
锹	-14741
锻	-14742
镀	-14743
阊	-14744
阕	-14745
阜	-14746
陌	-14747
陨	-14748
隅	-14749
隋	-14750
隽	-14751
雉	-14752
雹	-14753
霓	-14754
颁	-14755
飨	-14756
饲	-14757
馁	-14758
鬒	-14759
鮹	-14760
鲞	-14761
鲟	-14762
鳌	-14763
鳏	-14764
鸰	-14765
鹄	-14766
鹡	-14767
鹭	-14768
鹾	-14769
麀	-14770
麈	-14771
麾	-14772
黏	-14773
黧	-14774
鼾	-14775
齁	-14776
¥	-14777
─	-14778
ㄚ	-14779
丙	-14780
亢	-14781
亸	-14782
亿	-14783
伍	-14784
伟	-14785
佞	-14786
侃	-14787
侑	-14788
侥	-14789
侪	-14790
俑	-14791
俘	-14792
俚	-14793
俵	-14794
俾	-14795
倕	-14796
偃	-14797
偄	-14798
凯	-14799
刨	-14800
刷	-14801
剁	-14802
剧	-14803
勃	-14804
勖	-14805
募	-14806
匈	-14807
匏	-14808
匐	-14809
匮	-14810
区	-14811
卓	-14812
厂	-14813
厝	-14814
叭	-14815
叵	-14816
叽	-14817
吕	-14818
吶	-14819
吻	-14820
呲	-14821
呶	-14822
咨	-14823
哎	-14824
唳	-14825
啃	-14826
啄	-14827
喀	-14828
喏	-14829
喑	-14830
嗦	-14831
噤	-14832
噫	-14833
囋	-14834
囹	-14835
圄	-14836
圊	-14837
圹	-14838
坍	-14839
坷	-14840
垒	-14841
垛	-14842
垤	-14843
垦	-14844
堑	-14845
堡	-14846
塍	-14847
墁	-14848
壤	-14849
壬	-14850
奎	-14851
奕	-14852
奼	-14853
妤	-14854
姝	-14855
娉	-14856
婕	-14857
媖	-14858
媪	-14859
媾	-14860
嫠	-14861
嬗	-14862
孳	-14863
宓	-14864
宛	-14865
寤	-14866
屃	-14867
届	-14868
屣	-14869
岑	-14870
岚	-14871
岛	-14872
岩	-14873
岭	-14874
峡	-14875
峥	-14876
峭	-14877
嵘	-14878
嵬	-14879
嶒	-14880
帅	-14881
帼	-14882
幛	-14883
幪	-14884
庑	-14885
庖	-14886
庾	-14887
弈	-14888
弒	-14889
弗	-14890
弘	-14891
弛	-14892
弼	-14893
彘	-14894
彪	-14895
彰	-14896
徭	-14897
忤	-14898
忳	-14899
恁	-14900
恺	-14901
悒	-14902
悫	-14903
惆	-14904
惋	-14905
惫	-14906
愆	-14907
愍	-14908
慑	-14909
憩	-14910
懑	-14911
懵	-14912
戗	-14913
戾	-14914
扒	-14915
抔	-14916
抗	-14917
拯	-14918
挞	-14919
捍	-14920
掊	-14921
掬	-14922
掺	-14923
揆	-14924
揌	-14925
揲	-14926
搦	-14927
搵	-14928
摹	-14929
擉	-14930
擢	-14931
擤	-14932
擿	-14933
攦	-14934
敁	-14935
敔	-14936
敪	-14937
斸	-14938
旃	-14939
晏	-14940
晤	-14941
曦	-14942
曩	-14943
曳	-14944
曷	-14945
曼	-14946
朮	-14947
杞	-14948
杪	-14949
杭	-14950
杷	-14951
枇	-14952
析	-14953
枒	-14954
枷	-14955
枸	-14956
柘	-14957
柬	-14958
栎	-14959
桀	-14960
框	-14961
桎	-14962
桡	-14963
梵	-14964
椿	-14965
楸	-14966
榧	-14967
槔	-14968
槥	-14969
樗	-14970
樯	-14971
樵	-14972
樽	-14973
橇	-14974
橙	-14975
橼	-14976
欤	-14977
欷	-14978
歉	-14979
歍	-14980
歔	-14981
殂	-14982
殆	-14983
殇	-14984
毓	-14985
毘	-14986
毙	-14987
氆	-14988
氇	-14989
汇	-14990
汕	-14991
汞	-14992
汰	-14993
沈	-14994
沓	-14995
泞	-14996
